#include "magic_wand_model_data.h"


// We need to keep the data array aligned on some architectures.

#ifdef __has_attribute

#define HAVE_ATTRIBUTE(x) __has_attribute(x)

#else

#define HAVE_ATTRIBUTE(x) 0

#endif

#if HAVE_ATTRIBUTE(aligned) || (defined(__GNUC__) && !defined(__clang__))

#define DATA_ALIGN_ATTRIBUTE __attribute__((aligned(4)))

#else

#define DATA_ALIGN_ATTRIBUTE

#endif


const unsigned char g_magic_wand_model_data[] DATA_ALIGN_ATTRIBUTE = {
  0x1c, 0x00, 0x00, 0x00, 0x54, 0x46, 0x4c, 0x33, 0x14, 0x00, 0x20, 0x00,
  0x04, 0x00, 0x08, 0x00, 0x0c, 0x00, 0x10, 0x00, 0x14, 0x00, 0x00, 0x00,
  0x18, 0x00, 0x1c, 0x00, 0x14, 0x00, 0x00, 0x00, 0x03, 0x00, 0x00, 0x00,
  0x18, 0x00, 0x00, 0x00, 0x2c, 0x00, 0x00, 0x00, 0xd8, 0x00, 0x00, 0x00,
  0x2c, 0x00, 0x00, 0x00, 0x80, 0x00, 0x00, 0x00, 0x78, 0x00, 0x00, 0x00,
  0x05, 0x00, 0x00, 0x00, 0x28, 0x07, 0x00, 0x00, 0x44, 0x06, 0x00, 0x00,
  0xbc, 0x03, 0x00, 0x00, 0xf8, 0x02, 0x00, 0x00, 0xac, 0x01, 0x00, 0x00,
  0x01, 0x00, 0x00, 0x00, 0xd0, 0x00, 0x00, 0x00, 0x14, 0x00, 0x00, 0x00,
  0x20, 0x33, 0x00, 0x00, 0x1c, 0x33, 0x00, 0x00, 0x14, 0x32, 0x00, 0x00,
  0x60, 0x31, 0x00, 0x00, 0xb8, 0x30, 0x00, 0x00, 0x3c, 0x30, 0x00, 0x00,
  0xd0, 0x2f, 0x00, 0x00, 0x80, 0x13, 0x00, 0x00, 0xec, 0x11, 0x00, 0x00,
  0x10, 0x10, 0x00, 0x00, 0xb4, 0x07, 0x00, 0x00, 0xf4, 0x32, 0x00, 0x00,
  0xf0, 0x32, 0x00, 0x00, 0xec, 0x32, 0x00, 0x00, 0xe8, 0x32, 0x00, 0x00,
  0xe4, 0x32, 0x00, 0x00, 0xe0, 0x32, 0x00, 0x00, 0xdc, 0x32, 0x00, 0x00,
  0xd8, 0x32, 0x00, 0x00, 0x3c, 0x00, 0x00, 0x00, 0x00, 0x00, 0x00, 0x00,
  0x01, 0x00, 0x00, 0x00, 0x0c, 0x00, 0x00, 0x00, 0x08, 0x00, 0x0c, 0x00,
  0x04, 0x00, 0x08, 0x00, 0x08, 0x00, 0x00, 0x00, 0x08, 0x00, 0x00, 0x00,
  0x13, 0x00, 0x00, 0x00, 0x13, 0x00, 0x00, 0x00, 0x6d, 0x69, 0x6e, 0x5f,
  0x72, 0x75, 0x6e, 0x74, 0x69, 0x6d, 0x65, 0x5f, 0x76, 0x65, 0x72, 0x73,
  0x69, 0x6f, 0x6e, 0x00, 0x72, 0xce, 0xff, 0xff, 0x04, 0x00, 0x00, 0x00,
  0x10, 0x00, 0x00, 0x00, 0x31, 0x2e, 0x35, 0x2e, 0x30, 0x00, 0x00, 0x00,
  0x00, 0x00, 0x00, 0x00, 0x00, 0x00, 0x00, 0x00, 0x0f, 0x00, 0x00, 0x00,
  0x4d, 0x4c, 0x49, 0x52, 0x20, 0x43, 0x6f, 0x6e, 0x76, 0x65, 0x72, 0x74,
  0x65, 0x64, 0x2e, 0x00, 0x00, 0x00, 0x0e, 0x00, 0x18, 0x00, 0x04, 0x00,
  0x08, 0x00, 0x0c, 0x00, 0x10, 0x00, 0x14, 0x00, 0x0e, 0x00, 0x00, 0x00,
  0x14, 0x00, 0x00, 0x00, 0x5c, 0x00, 0x00, 0x00, 0x60, 0x00, 0x00, 0x00,
  0x64, 0x00, 0x00, 0x00, 0x84, 0x00, 0x00, 0x00, 0x12, 0x00, 0x00, 0x00,
  0xe0, 0x31, 0x00, 0x00, 0x70, 0x31, 0x00, 0x00, 0xcc, 0x30, 0x00, 0x00,
  0x24, 0x30, 0x00, 0x00, 0x7c, 0x2f, 0x00, 0x00, 0x14, 0x2f, 0x00, 0x00,
  0xac, 0x2e, 0x00, 0x00, 0x58, 0x12, 0x00, 0x00, 0xbc, 0x10, 0x00, 0x00,
  0xe0, 0x0e, 0x00, 0x00, 0x0c, 0x06, 0x00, 0x00, 0x28, 0x05, 0x00, 0x00,
  0xe8, 0x03, 0x00, 0x00, 0x3c, 0x03, 0x00, 0x00, 0x98, 0x02, 0x00, 0x00,
  0xd4, 0x01, 0x00, 0x00, 0x10, 0x01, 0x00, 0x00, 0x84, 0x00, 0x00, 0x00,
  0x01, 0x00, 0x00, 0x00, 0x00, 0x00, 0x00, 0x00, 0x01, 0x00, 0x00, 0x00,
  0x11, 0x00, 0x00, 0x00, 0x08, 0x00, 0x00, 0x00, 0x74, 0x05, 0x00, 0x00,
  0x94, 0x04, 0x00, 0x00, 0x78, 0x03, 0x00, 0x00, 0xbc, 0x02, 0x00, 0x00,
  0x30, 0x02, 0x00, 0x00, 0x50, 0x01, 0x00, 0x00, 0xa8, 0x00, 0x00, 0x00,
  0x10, 0x00, 0x00, 0x00, 0x04, 0x00, 0x00, 0x00, 0x6d, 0x61, 0x69, 0x6e,
  0x00, 0x00, 0x00, 0x00, 0x7a, 0xff, 0xff, 0xff, 0x00, 0x00, 0x00, 0x09,
  0x04, 0x00, 0x00, 0x00, 0x1c, 0x00, 0x00, 0x00, 0x10, 0x00, 0x00, 0x00,
  0x04, 0x00, 0x00, 0x00, 0x6e, 0xcf, 0xff, 0xff, 0x00, 0x00, 0x80, 0x3f,
  0x01, 0x00, 0x00, 0x00, 0x11, 0x00, 0x00, 0x00, 0x01, 0x00, 0x00, 0x00,
  0x10, 0x00, 0x00, 0x00, 0xa0, 0xfa, 0xff, 0xff, 0x19, 0x00, 0x00, 0x00,
  0x00, 0x00, 0x00, 0x19, 0x01, 0x00, 0x00, 0x00, 0xfc, 0xce, 0xff, 0xff,
  0x14, 0x00, 0x00, 0x00, 0x12, 0x00, 0x00, 0x00, 0x18, 0x00, 0x00, 0x00,
  0x30, 0x00, 0x00, 0x00, 0x20, 0x00, 0x00, 0x00, 0x02, 0x00, 0x00, 0x00,
  0x01, 0x00, 0x00, 0x00, 0x05, 0x00, 0x00, 0x00, 0x08, 0x00, 0x00, 0x00,
  0x49, 0x64, 0x65, 0x6e, 0x74, 0x69, 0x74, 0x79, 0x00, 0x00, 0x00, 0x00,
  0x02, 0x00, 0x00, 0x00, 0xff, 0xff, 0xff, 0xff, 0x05, 0x00, 0x00, 0x00,
  0xe0, 0xcf, 0xff, 0xff, 0x00, 0x00, 0x0e, 0x00, 0x18, 0x00, 0x08, 0x00,
  0x0c, 0x00, 0x10, 0x00, 0x07, 0x00, 0x14, 0x00, 0x0e, 0x00, 0x00, 0x00,
  0x00, 0x00, 0x00, 0x08, 0x03, 0x00, 0x00, 0x00, 0x18, 0x00, 0x00, 0x00,
  0x0c, 0x00, 0x00, 0x00, 0x04, 0x00, 0x00, 0x00, 0xfc, 0xce, 0xff, 0xff,
  0x01, 0x00, 0x00, 0x00, 0x10, 0x00, 0x00, 0x00, 0x03, 0x00, 0x00, 0x00,
  0x0f, 0x00, 0x00, 0x00, 0x07, 0x00, 0x00, 0x00, 0x04, 0x00, 0x00, 0x00,
  0x84, 0xcf, 0xff, 0xff, 0x14, 0x00, 0x00, 0x00, 0x11, 0x00, 0x00, 0x00,
  0x18, 0x00, 0x00, 0x00, 0x5c, 0x00, 0x00, 0x00, 0x4c, 0x00, 0x00, 0x00,
  0x02, 0x00, 0x00, 0x00, 0x01, 0x00, 0x00, 0x00, 0x05, 0x00, 0x00, 0x00,
  0x34, 0x00, 0x00, 0x00, 0x73, 0x65, 0x71, 0x75, 0x65, 0x6e, 0x74, 0x69,
  0x61, 0x6c, 0x2f, 0x64, 0x65, 0x6e, 0x73, 0x65, 0x5f, 0x31, 0x2f, 0x4d,
  0x61, 0x74, 0x4d, 0x75, 0x6c, 0x3b, 0x73, 0x65, 0x71, 0x75, 0x65, 0x6e,
  0x74, 0x69, 0x61, 0x6c, 0x2f, 0x64, 0x65, 0x6e, 0x73, 0x65, 0x5f, 0x31,
  0x2f, 0x42, 0x69, 0x61, 0x73, 0x41, 0x64, 0x64, 0x00, 0x00, 0x00, 0x00,
  0x02, 0x00, 0x00, 0x00, 0xff, 0xff, 0xff, 0xff, 0x05, 0x00, 0x00, 0x00,
  0x84, 0xcf, 0xff, 0xff, 0xda, 0xfc, 0xff, 0xff, 0x00, 0x00, 0x00, 0x08,
  0x03, 0x00, 0x00, 0x00, 0x24, 0x00, 0x00, 0x00, 0x18, 0x00, 0x00, 0x00,
  0x0c, 0x00, 0x00, 0x00, 0x00, 0x00, 0x06, 0x00, 0x08, 0x00, 0x07, 0x00,
  0x06, 0x00, 0x00, 0x00, 0x00, 0x00, 0x00, 0x01, 0x01, 0x00, 0x00, 0x00,
  0x0f, 0x00, 0x00, 0x00, 0x03, 0x00, 0x00, 0x00, 0x0e, 0x00, 0x00, 0x00,
  0x06, 0x00, 0x00, 0x00, 0x03, 0x00, 0x00, 0x00, 0xe8, 0xfb, 0xff, 0xff,
  0x09, 0x00, 0x00, 0x00, 0x00, 0x00, 0x00, 0x09, 0x01, 0x00, 0x00, 0x00,
  0x44, 0xd0, 0xff, 0xff, 0x14, 0x00, 0x00, 0x00, 0x10, 0x00, 0x00, 0x00,
  0x18, 0x00, 0x00, 0x00, 0x6c, 0x00, 0x00, 0x00, 0x5c, 0x00, 0x00, 0x00,
  0x02, 0x00, 0x00, 0x00, 0x01, 0x00, 0x00, 0x00, 0x10, 0x00, 0x00, 0x00,
  0x46, 0x00, 0x00, 0x00, 0x73, 0x65, 0x71, 0x75, 0x65, 0x6e, 0x74, 0x69,
  0x61, 0x6c, 0x2f, 0x64, 0x65, 0x6e, 0x73, 0x65, 0x2f, 0x4d, 0x61, 0x74,
  0x4d, 0x75, 0x6c, 0x3b, 0x73, 0x65, 0x71, 0x75, 0x65, 0x6e, 0x74, 0x69,
  0x61, 0x6c, 0x2f, 0x64, 0x65, 0x6e, 0x73, 0x65, 0x2f, 0x52, 0x65, 0x6c,
  0x75, 0x3b, 0x73, 0x65, 0x71, 0x75, 0x65, 0x6e, 0x74, 0x69, 0x61, 0x6c,
  0x2f, 0x64, 0x65, 0x6e, 0x73, 0x65, 0x2f, 0x42, 0x69, 0x61, 0x73, 0x41,
  0x64, 0x64, 0x00, 0x00, 0x02, 0x00, 0x00, 0x00, 0xff, 0xff, 0xff, 0xff,
  0x10, 0x00, 0x00, 0x00, 0x64, 0xd1, 0xff, 0xff, 0x00, 0x00, 0x0a, 0x00,
  0x10, 0x00, 0x04, 0x00, 0x08, 0x00, 0x0c, 0x00, 0x0a, 0x00, 0x00, 0x00,
  0x02, 0x00, 0x00, 0x00, 0x10, 0x00, 0x00, 0x00, 0x04, 0x00, 0x00, 0x00,
  0x01, 0x00, 0x00, 0x00, 0x0e, 0x00, 0x00, 0x00, 0x02, 0x00, 0x00, 0x00,
  0x0d, 0x00, 0x00, 0x00, 0x05, 0x00, 0x00, 0x00, 0xa8, 0xfc, 0xff, 0xff,
  0x16, 0x00, 0x00, 0x00, 0x00, 0x00, 0x00, 0x16, 0x01, 0x00, 0x00, 0x00,
  0x04, 0xd1, 0xff, 0xff, 0x14, 0x00, 0x00, 0x00, 0x0f, 0x00, 0x00, 0x00,
  0x18, 0x00, 0x00, 0x00, 0x40, 0x00, 0x00, 0x00, 0x30, 0x00, 0x00, 0x00,
  0x02, 0x00, 0x00, 0x00, 0x01, 0x00, 0x00, 0x00, 0x70, 0x00, 0x00, 0x00,
  0x1a, 0x00, 0x00, 0x00, 0x73, 0x65, 0x71, 0x75, 0x65, 0x6e, 0x74, 0x69,
  0x61, 0x6c, 0x2f, 0x66, 0x6c, 0x61, 0x74, 0x74, 0x65, 0x6e, 0x2f, 0x52,
  0x65, 0x73, 0x68, 0x61, 0x70, 0x65, 0x00, 0x00, 0x02, 0x00, 0x00, 0x00,
  0xff, 0xff, 0xff, 0xff, 0x70, 0x00, 0x00, 0x00, 0xe8, 0xd0, 0xff, 0xff,
  0x3e, 0xfe, 0xff, 0xff, 0x00, 0x00, 0x00, 0x05, 0x01, 0x00, 0x00, 0x00,
  0x38, 0x00, 0x00, 0x00, 0x2c, 0x00, 0x00, 0x00, 0x14, 0x00, 0x00, 0x00,
  0x00, 0x00, 0x0e, 0x00, 0x14, 0x00, 0x00, 0x00, 0x10, 0x00, 0x0c, 0x00,
  0x08, 0x00, 0x04, 0x00, 0x0e, 0x00, 0x00, 0x00, 0x03, 0x00, 0x00, 0x00,
  0x01, 0x00, 0x00, 0x00, 0x03, 0x00, 0x00, 0x00, 0x01, 0x00, 0x00, 0x00,
  0x01, 0x00, 0x00, 0x00, 0x0d, 0x00, 0x00, 0x00, 0x01, 0x00, 0x00, 0x00,
  0x0c, 0x00, 0x00, 0x00, 0xa4, 0xd1, 0xff, 0xff, 0x14, 0x00, 0x00, 0x00,
  0x0e, 0x00, 0x00, 0x00, 0x20, 0x00, 0x00, 0x00, 0x58, 0x00, 0x00, 0x00,
  0x40, 0x00, 0x00, 0x00, 0x04, 0x00, 0x00, 0x00, 0x01, 0x00, 0x00, 0x00,
  0x07, 0x00, 0x00, 0x00, 0x01, 0x00, 0x00, 0x00, 0x10, 0x00, 0x00, 0x00,
  0x22, 0x00, 0x00, 0x00, 0x73, 0x65, 0x71, 0x75, 0x65, 0x6e, 0x74, 0x69,
  0x61, 0x6c, 0x2f, 0x6d, 0x61, 0x78, 0x5f, 0x70, 0x6f, 0x6f, 0x6c, 0x69,
  0x6e, 0x67, 0x32, 0x64, 0x5f, 0x31, 0x2f, 0x4d, 0x61, 0x78, 0x50, 0x6f,
  0x6f, 0x6c, 0x00, 0x00, 0x04, 0x00, 0x00, 0x00, 0xff, 0xff, 0xff, 0xff,
  0x07, 0x00, 0x00, 0x00, 0x01, 0x00, 0x00, 0x00, 0x10, 0x00, 0x00, 0x00,
  0xa0, 0xd1, 0xff, 0xff, 0x1a, 0xfe, 0xff, 0xff, 0x00, 0x00, 0x00, 0x01,
  0x24, 0x00, 0x00, 0x00, 0x18, 0x00, 0x00, 0x00, 0x04, 0x00, 0x00, 0x00,
  0x0c, 0xfe, 0xff, 0xff, 0x01, 0x00, 0x00, 0x00, 0x01, 0x00, 0x00, 0x00,
  0x00, 0x00, 0x00, 0x01, 0x01, 0x00, 0x00, 0x00, 0x0c, 0x00, 0x00, 0x00,
  0x03, 0x00, 0x00, 0x00, 0x0b, 0x00, 0x00, 0x00, 0x09, 0x00, 0x00, 0x00,
  0x02, 0x00, 0x00, 0x00, 0x4c, 0xd2, 0xff, 0xff, 0x14, 0x00, 0x00, 0x00,
  0x0d, 0x00, 0x00, 0x00, 0x20, 0x00, 0x00, 0x00, 0xb8, 0x00, 0x00, 0x00,
  0xa0, 0x00, 0x00, 0x00, 0x04, 0x00, 0x00, 0x00, 0x01, 0x00, 0x00, 0x00,
  0x15, 0x00, 0x00, 0x00, 0x01, 0x00, 0x00, 0x00, 0x10, 0x00, 0x00, 0x00,
  0x83, 0x00, 0x00, 0x00, 0x73, 0x65, 0x71, 0x75, 0x65, 0x6e, 0x74, 0x69,
  0x61, 0x6c, 0x2f, 0x63, 0x6f, 0x6e, 0x76, 0x32, 0x64, 0x5f, 0x31, 0x2f,
  0x52, 0x65, 0x6c, 0x75, 0x3b, 0x73, 0x65, 0x71, 0x75, 0x65, 0x6e, 0x74,
  0x69, 0x61, 0x6c, 0x2f, 0x63, 0x6f, 0x6e, 0x76, 0x32, 0x64, 0x5f, 0x31,
  0x2f, 0x42, 0x69, 0x61, 0x73, 0x41, 0x64, 0x64, 0x3b, 0x73, 0x65, 0x71,
  0x75, 0x65, 0x6e, 0x74, 0x69, 0x61, 0x6c, 0x2f, 0x63, 0x6f, 0x6e, 0x76,
  0x32, 0x64, 0x5f, 0x31, 0x2f, 0x43, 0x6f, 0x6e, 0x76, 0x32, 0x44, 0x3b,
  0x73, 0x65, 0x71, 0x75, 0x65, 0x6e, 0x74, 0x69, 0x61, 0x6c, 0x2f, 0x63,
  0x6f, 0x6e, 0x76, 0x32, 0x64, 0x5f, 0x31, 0x2f, 0x42, 0x69, 0x61, 0x73,
  0x41, 0x64, 0x64, 0x2f, 0x52, 0x65, 0x61, 0x64, 0x56, 0x61, 0x72, 0x69,
  0x61, 0x62, 0x6c, 0x65, 0x4f, 0x70, 0x2f, 0x72, 0x65, 0x73, 0x6f, 0x75,
  0x72, 0x63, 0x65, 0x00, 0x04, 0x00, 0x00, 0x00, 0xff, 0xff, 0xff, 0xff,
  0x15, 0x00, 0x00, 0x00, 0x01, 0x00, 0x00, 0x00, 0x10, 0x00, 0x00, 0x00,
  0xb8, 0xd3, 0xff, 0xff, 0x00, 0x00, 0x0e, 0x00, 0x1a, 0x00, 0x08, 0x00,
  0x0c, 0x00, 0x10, 0x00, 0x07, 0x00, 0x14, 0x00, 0x0e, 0x00, 0x00, 0x00,
  0x00, 0x00, 0x00, 0x05, 0x01, 0x00, 0x00, 0x00, 0x3c, 0x00, 0x00, 0x00,
  0x30, 0x00, 0x00, 0x00, 0x14, 0x00, 0x00, 0x00, 0x00, 0x00, 0x0e, 0x00,
  0x18, 0x00, 0x17, 0x00, 0x10, 0x00, 0x0c, 0x00, 0x08, 0x00, 0x04, 0x00,
  0x0e, 0x00, 0x00, 0x00, 0x03, 0x00, 0x00, 0x00, 0x03, 0x00, 0x00, 0x00,
  0x03, 0x00, 0x00, 0x00, 0x03, 0x00, 0x00, 0x00, 0x00, 0x00, 0x00, 0x01,
  0x01, 0x00, 0x00, 0x00, 0x0b, 0x00, 0x00, 0x00, 0x01, 0x00, 0x00, 0x00,
  0x0a, 0x00, 0x00, 0x00, 0x2c, 0xff, 0xff, 0xff, 0x11, 0x00, 0x00, 0x00,
  0x00, 0x00, 0x00, 0x11, 0x01, 0x00, 0x00, 0x00, 0x88, 0xd3, 0xff, 0xff,
  0x14, 0x00, 0x00, 0x00, 0x0c, 0x00, 0x00, 0x00, 0x20, 0x00, 0x00, 0x00,
  0x58, 0x00, 0x00, 0x00, 0x40, 0x00, 0x00, 0x00, 0x04, 0x00, 0x00, 0x00,
  0x01, 0x00, 0x00, 0x00, 0x15, 0x00, 0x00, 0x00, 0x01, 0x00, 0x00, 0x00,
  0x08, 0x00, 0x00, 0x00, 0x20, 0x00, 0x00, 0x00, 0x73, 0x65, 0x71, 0x75,
  0x65, 0x6e, 0x74, 0x69, 0x61, 0x6c, 0x2f, 0x6d, 0x61, 0x78, 0x5f, 0x70,
  0x6f, 0x6f, 0x6c, 0x69, 0x6e, 0x67, 0x32, 0x64, 0x2f, 0x4d, 0x61, 0x78,
  0x50, 0x6f, 0x6f, 0x6c, 0x00, 0x00, 0x00, 0x00, 0x04, 0x00, 0x00, 0x00,
  0xff, 0xff, 0xff, 0xff, 0x15, 0x00, 0x00, 0x00, 0x01, 0x00, 0x00, 0x00,
  0x08, 0x00, 0x00, 0x00, 0x94, 0xd4, 0xff, 0xff, 0x00, 0x00, 0x0e, 0x00,
  0x14, 0x00, 0x00, 0x00, 0x08, 0x00, 0x0c, 0x00, 0x07, 0x00, 0x10, 0x00,
  0x0e, 0x00, 0x00, 0x00, 0x00, 0x00, 0x00, 0x01, 0x30, 0x00, 0x00, 0x00,
  0x24, 0x00, 0x00, 0x00, 0x10, 0x00, 0x00, 0x00, 0x0c, 0x00, 0x10, 0x00,
  0x00, 0x00, 0x04, 0x00, 0x08, 0x00, 0x0f, 0x00, 0x0c, 0x00, 0x00, 0x00,
  0x01, 0x00, 0x00, 0x00, 0x01, 0x00, 0x00, 0x00, 0x00, 0x00, 0x00, 0x01,
  0x01, 0x00, 0x00, 0x00, 0x0a, 0x00, 0x00, 0x00, 0x03, 0x00, 0x00, 0x00,
  0x00, 0x00, 0x00, 0x00, 0x08, 0x00, 0x00, 0x00, 0x01, 0x00, 0x00, 0x00,
  0x0c, 0x00, 0x10, 0x00, 0x0b, 0x00, 0x00, 0x00, 0x0c, 0x00, 0x04, 0x00,
  0x0c, 0x00, 0x00, 0x00, 0x03, 0x00, 0x00, 0x00, 0x00, 0x00, 0x00, 0x03,
  0x01, 0x00, 0x00, 0x00, 0x68, 0xd4, 0xff, 0xff, 0x14, 0x00, 0x00, 0x00,
  0x0b, 0x00, 0x00, 0x00, 0x20, 0x00, 0x00, 0x00, 0xb0, 0x00, 0x00, 0x00,
  0x98, 0x00, 0x00, 0x00, 0x04, 0x00, 0x00, 0x00, 0x01, 0x00, 0x00, 0x00,
  0x40, 0x00, 0x00, 0x00, 0x03, 0x00, 0x00, 0x00, 0x08, 0x00, 0x00, 0x00,
  0x7b, 0x00, 0x00, 0x00, 0x73, 0x65, 0x71, 0x75, 0x65, 0x6e, 0x74, 0x69,
  0x61, 0x6c, 0x2f, 0x63, 0x6f, 0x6e, 0x76, 0x32, 0x64, 0x2f, 0x52, 0x65,
  0x6c, 0x75, 0x3b, 0x73, 0x65, 0x71, 0x75, 0x65, 0x6e, 0x74, 0x69, 0x61,
  0x6c, 0x2f, 0x63, 0x6f, 0x6e, 0x76, 0x32, 0x64, 0x2f, 0x42, 0x69, 0x61,
  0x73, 0x41, 0x64, 0x64, 0x3b, 0x73, 0x65, 0x71, 0x75, 0x65, 0x6e, 0x74,
  0x69, 0x61, 0x6c, 0x2f, 0x63, 0x6f, 0x6e, 0x76, 0x32, 0x64, 0x2f, 0x43,
  0x6f, 0x6e, 0x76, 0x32, 0x44, 0x3b, 0x73, 0x65, 0x71, 0x75, 0x65, 0x6e,
  0x74, 0x69, 0x61, 0x6c, 0x2f, 0x63, 0x6f, 0x6e, 0x76, 0x32, 0x64, 0x2f,
  0x42, 0x69, 0x61, 0x73, 0x41, 0x64, 0x64, 0x2f, 0x52, 0x65, 0x61, 0x64,
  0x56, 0x61, 0x72, 0x69, 0x61, 0x62, 0x6c, 0x65, 0x4f, 0x70, 0x2f, 0x72,
  0x65, 0x73, 0x6f, 0x75, 0x72, 0x63, 0x65, 0x00, 0x04, 0x00, 0x00, 0x00,
  0xff, 0xff, 0xff, 0xff, 0x40, 0x00, 0x00, 0x00, 0x03, 0x00, 0x00, 0x00,
  0x08, 0x00, 0x00, 0x00, 0xbc, 0xd4, 0xff, 0xff, 0xc6, 0xd5, 0xff, 0xff,
  0x04, 0x00, 0x00, 0x00, 0x00, 0x08, 0x00, 0x00, 0x67, 0x8b, 0x91, 0xbd,
  0x7e, 0x5f, 0x10, 0xbd, 0x18, 0xd2, 0x06, 0xbe, 0xa2, 0x75, 0xd8, 0xbc,
  0xcd, 0x7e, 0x8f, 0xbc, 0x6b, 0x22, 0xc4, 0xbd, 0xc8, 0xe6, 0xa0, 0xbd,
  0xb8, 0xc3, 0x2d, 0x3d, 0xba, 0xd0, 0xdb, 0xbd, 0x4b, 0xeb, 0x84, 0x3a,
  0xb8, 0x7a, 0x1a, 0xbe, 0x23, 0x83, 0xc1, 0xbd, 0x89, 0xd3, 0x2a, 0x3e,
  0x09, 0xda, 0xe8, 0xbd, 0x0b, 0xe5, 0x6b, 0xbd, 0xdd, 0x59, 0x50, 0xbd,
  0x02, 0x5b, 0x7d, 0xbd, 0xa7, 0x3d, 0xab, 0x3e, 0x57, 0x33, 0x08, 0xbd,
  0x58, 0xaa, 0x95, 0x3d, 0x1f, 0xbc, 0x87, 0x3e, 0xdb, 0xa7, 0x8e, 0xbd,
  0xcc, 0xa3, 0x4c, 0x3d, 0x46, 0x73, 0x7d, 0xbd, 0x8f, 0x09, 0x91, 0x3b,
  0x00, 0x60, 0xfb, 0xbc, 0xfe, 0x0d, 0x8c, 0xbc, 0x65, 0x6f, 0x1e, 0x3d,
  0x0a, 0xbc, 0x14, 0x3e, 0x7c, 0x1d, 0xe6, 0xbd, 0xdf, 0x67, 0x82, 0xba,
  0xca, 0xe9, 0xf5, 0xbc, 0x17, 0x46, 0x32, 0xbd, 0x04, 0xc5, 0x99, 0xbe,
  0x3e, 0x06, 0xda, 0x3d, 0x61, 0x10, 0x03, 0x3e, 0x33, 0x8b, 0x7d, 0x3d,
  0x3f, 0xd4, 0x79, 0x3c, 0x78, 0x9c, 0xac, 0xbe, 0x72, 0x5d, 0xa2, 0xbc,
  0x87, 0x7b, 0xc5, 0xbd, 0x81, 0x09, 0x80, 0x3e, 0x3f, 0xc5, 0xcc, 0xbe,
  0xd9, 0xfd, 0x11, 0xbe, 0xdf, 0xf7, 0xf4, 0x3c, 0x35, 0x43, 0x20, 0xbf,
  0x94, 0xd1, 0x44, 0xbe, 0xd2, 0x99, 0x04, 0xbf, 0xc2, 0x0a, 0xea, 0xbc,
  0x3a, 0x45, 0x7e, 0x3d, 0xcb, 0xd7, 0x22, 0xbe, 0x60, 0x5e, 0xdd, 0xbd,
  0x38, 0x18, 0x10, 0xbe, 0x9b, 0x67, 0xc3, 0xbe, 0x3c, 0xf3, 0x55, 0x3e,
  0x73, 0x9e, 0x9f, 0xbd, 0x37, 0x04, 0x4c, 0xbd, 0x30, 0xe5, 0x42, 0x3e,
  0xa6, 0x9a, 0xb4, 0x3c, 0x6c, 0x6d, 0x14, 0xbd, 0x98, 0x88, 0xa2, 0xbd,
  0x9e, 0x55, 0x72, 0xbe, 0x5b, 0x07, 0x05, 0x3d, 0xd8, 0x09, 0x05, 0xbb,
  0x69, 0xe5, 0x44, 0xbc, 0x09, 0xda, 0xca, 0xbd, 0x8c, 0xab, 0x5a, 0xbe,
  0xf7, 0x3c, 0xc5, 0xbe, 0x53, 0xf0, 0x57, 0x3d, 0x40, 0x08, 0x21, 0xbe,
  0x58, 0x55, 0xf0, 0xbd, 0xbe, 0xb9, 0x37, 0xbe, 0xda, 0xa0, 0x00, 0x3c,
  0xf0, 0xca, 0x95, 0x3e, 0x97, 0xbb, 0x57, 0xbe, 0x09, 0x4a, 0xca, 0xbd,
  0xab, 0x5c, 0x3f, 0xbc, 0x3f, 0xdd, 0x5c, 0xbe, 0x41, 0xa6, 0x06, 0xbe,
  0xd9, 0x8e, 0x1a, 0xbe, 0xfe, 0x7e, 0xba, 0xbd, 0x93, 0x1f, 0xbc, 0xbd,
  0x6d, 0xec, 0xd9, 0xbe, 0x0d, 0x91, 0xa7, 0xbd, 0x32, 0xaf, 0x90, 0xbd,
  0x53, 0x8f, 0x77, 0xbe, 0x2e, 0xbd, 0x87, 0xbe, 0x6a, 0x05, 0x2a, 0xbe,
  0xa3, 0x13, 0x3a, 0x3d, 0xf3, 0xbe, 0x4f, 0x3e, 0xc3, 0x2d, 0xaa, 0xbd,
  0x42, 0xde, 0x09, 0xbe, 0x08, 0xc8, 0x5a, 0x3d, 0xfb, 0x0a, 0x4b, 0x3d,
  0x72, 0xf5, 0x3f, 0xbd, 0x13, 0xdc, 0x1e, 0xbe, 0x0d, 0x02, 0xdb, 0xbd,
  0x3c, 0x58, 0x74, 0xbc, 0x68, 0x1d, 0xc0, 0xbd, 0x30, 0xf3, 0x01, 0xbe,
  0x5c, 0x23, 0x95, 0xbe, 0x3c, 0xaa, 0x04, 0xbe, 0xf5, 0x74, 0x41, 0xbc,
  0x90, 0x17, 0xac, 0xbb, 0x61, 0x19, 0xa3, 0xbd, 0x83, 0x96, 0xa0, 0xbd,
  0xeb, 0x09, 0xdd, 0xbd, 0x36, 0x04, 0xe4, 0xbd, 0xf1, 0x15, 0x86, 0xbe,
  0xbb, 0x05, 0xab, 0xbd, 0xec, 0x41, 0xf6, 0xbc, 0xa2, 0x74, 0x85, 0xbc,
  0xaf, 0x48, 0x63, 0xbd, 0xb7, 0x34, 0x89, 0xbd, 0xa4, 0x4f, 0xac, 0xbd,
  0x62, 0x2d, 0xb0, 0x3d, 0x67, 0xb7, 0xe1, 0xbc, 0xec, 0x7f, 0x89, 0xbb,
  0x48, 0x6e, 0x38, 0x3d, 0x91, 0x19, 0x62, 0x3c, 0x7e, 0xeb, 0x7f, 0xbc,
  0x53, 0x5c, 0x60, 0xbb, 0x89, 0xa6, 0xba, 0xbd, 0xa9, 0x49, 0xec, 0x3d,
  0x18, 0x1d, 0x6d, 0x3b, 0xe7, 0xc1, 0xd1, 0x3e, 0x4a, 0x6a, 0x4e, 0x3d,
  0xfb, 0x7e, 0xec, 0x3c, 0xe0, 0xa1, 0xaf, 0xbd, 0xe6, 0x66, 0xae, 0xbe,
  0x2a, 0x94, 0xc4, 0xbd, 0x33, 0xdb, 0x3a, 0xbf, 0x3e, 0x27, 0x91, 0x3e,
  0xa9, 0x41, 0xed, 0xbd, 0xdc, 0x3c, 0x24, 0xbf, 0x09, 0xcf, 0x6e, 0xbe,
  0xd2, 0x75, 0x42, 0xbd, 0x32, 0xb8, 0x1b, 0x3e, 0xa5, 0x46, 0x85, 0xbe,
  0x65, 0x35, 0x80, 0xbe, 0xc8, 0x29, 0x90, 0x3d, 0xa2, 0xd6, 0x45, 0xbf,
  0x35, 0x07, 0x49, 0x3d, 0xfc, 0x37, 0xc3, 0xbd, 0x3f, 0xe7, 0x77, 0xbd,
  0xe8, 0x2c, 0x6c, 0x3e, 0x58, 0x78, 0xe2, 0x3c, 0xf8, 0x68, 0xe9, 0xbd,
  0xb3, 0x10, 0x0e, 0xbe, 0xed, 0x92, 0x92, 0xbe, 0x26, 0xce, 0xb4, 0xbc,
  0x95, 0x16, 0xbc, 0xbc, 0x04, 0xb2, 0xe0, 0xbc, 0x9d, 0x83, 0x5e, 0xbc,
  0xd6, 0x2e, 0x3f, 0xbd, 0xa0, 0x7d, 0x8c, 0xbd, 0x1a, 0x4d, 0xc7, 0x3d,
  0x48, 0x82, 0x27, 0xbe, 0xd7, 0x42, 0xbd, 0x3e, 0xf8, 0x3b, 0xbf, 0xbc,
  0x88, 0x04, 0x9f, 0xbd, 0xd1, 0xe8, 0x4f, 0x3c, 0xd7, 0xd1, 0x34, 0xbc,
  0x87, 0x70, 0xcf, 0xbd, 0x9a, 0xf8, 0x77, 0xbe, 0x86, 0x92, 0x39, 0x3c,
  0x96, 0x05, 0x64, 0x3d, 0xfa, 0x0e, 0x2a, 0xbd, 0x9e, 0xae, 0xd9, 0xbd,
  0x0d, 0xf3, 0x34, 0xbd, 0xab, 0xc3, 0x18, 0xbd, 0xd0, 0xed, 0x41, 0xbe,
  0x54, 0xc0, 0x0e, 0xbe, 0xa6, 0xdd, 0x4a, 0xbd, 0xf6, 0x19, 0x38, 0xbb,
  0xc8, 0xf7, 0x6f, 0x3e, 0xa7, 0x7a, 0x35, 0xbe, 0xfd, 0xae, 0x98, 0xbd,
  0x09, 0x79, 0x92, 0xbd, 0xb9, 0x4d, 0xa2, 0xbe, 0x3d, 0x05, 0x95, 0x3c,
  0x48, 0x3e, 0x3c, 0xbd, 0x0b, 0x26, 0xb0, 0xbd, 0x42, 0x28, 0x13, 0xbe,
  0xa5, 0x01, 0x09, 0xbf, 0xa9, 0x28, 0x81, 0x3d, 0xdc, 0x65, 0xa6, 0x3d,
  0x29, 0xa8, 0xfa, 0xbe, 0xbf, 0xe1, 0xb0, 0x3e, 0x9d, 0xdc, 0xc0, 0x3b,
  0xd4, 0x97, 0xb4, 0xbe, 0xe3, 0xfc, 0xa1, 0xbd, 0xdf, 0x75, 0xf0, 0x3b,
  0x62, 0xa3, 0xbd, 0xbd, 0x1a, 0xcb, 0xbd, 0xbd, 0xba, 0xdb, 0xf1, 0xbc,
  0x65, 0xbc, 0x8a, 0x3b, 0x9f, 0x39, 0x90, 0xbc, 0x10, 0x7a, 0x74, 0xba,
  0x55, 0xd9, 0xd9, 0x3e, 0xe5, 0xa0, 0x04, 0xbc, 0xb1, 0xd7, 0xde, 0xbd,
  0xf6, 0x10, 0xcf, 0xbd, 0x53, 0xfa, 0x6e, 0xbd, 0x09, 0x0f, 0x1a, 0x3c,
  0x4f, 0xaa, 0x36, 0xbd, 0x3e, 0x8c, 0x02, 0xbd, 0x7c, 0xeb, 0x83, 0xbd,
  0x49, 0x5f, 0xf3, 0x3c, 0xd3, 0xfd, 0x08, 0xbe, 0x08, 0x21, 0xc8, 0xbd,
  0xbb, 0x63, 0x27, 0xbe, 0xb1, 0x16, 0x10, 0xbc, 0x3e, 0x18, 0x32, 0x3d,
  0xf9, 0x26, 0x05, 0x3e, 0x27, 0xa0, 0x24, 0xbd, 0xa5, 0x6c, 0x44, 0xbd,
  0xf1, 0x11, 0x8d, 0xbe, 0xb7, 0x10, 0x1e, 0xbd, 0x01, 0x8a, 0xcb, 0xbe,
  0x8e, 0x01, 0x00, 0x3d, 0x4b, 0x77, 0x91, 0x3d, 0xb8, 0x4f, 0x42, 0xbe,
  0xb0, 0x5d, 0xfe, 0xbd, 0x27, 0x42, 0x2b, 0x3e, 0x35, 0x0b, 0x2f, 0xbe,
  0x37, 0x05, 0xfd, 0xbe, 0x3f, 0x8e, 0xb5, 0xbd, 0x82, 0x11, 0x9b, 0xbe,
  0xd6, 0xde, 0x17, 0xbe, 0xa1, 0x66, 0x9d, 0xbe, 0xd2, 0x3b, 0x3b, 0xbe,
  0x28, 0xa3, 0xf7, 0xbc, 0x54, 0xc0, 0x20, 0xbd, 0x91, 0x79, 0x5a, 0x3d,
  0xb6, 0x49, 0x06, 0x3e, 0x0f, 0x6b, 0x49, 0x3d, 0xd8, 0x1f, 0xb7, 0xb9,
  0x09, 0xd6, 0xaf, 0xbd, 0xab, 0x7d, 0x9b, 0x3e, 0xae, 0xdc, 0x24, 0x3d,
  0xcb, 0x7f, 0xf4, 0x3c, 0x06, 0x54, 0x40, 0xbd, 0xcd, 0xda, 0xef, 0xbd,
  0xed, 0xd1, 0x4f, 0xbe, 0xcc, 0x34, 0x1d, 0xbe, 0x83, 0x86, 0xa0, 0x3b,
  0x52, 0xf2, 0x06, 0xbc, 0xed, 0x47, 0xeb, 0xbc, 0x85, 0x40, 0xbb, 0xbb,
  0xa1, 0xd5, 0x28, 0x3c, 0x37, 0x89, 0xb3, 0xbd, 0x5f, 0x24, 0x9b, 0xbd,
  0x38, 0x8b, 0x40, 0xbd, 0x98, 0x68, 0x74, 0x3d, 0x20, 0xd1, 0x36, 0xbc,
  0x15, 0xd9, 0xe5, 0x3c, 0xb6, 0xc5, 0xdb, 0xba, 0xab, 0x3d, 0x95, 0x3d,
  0xf1, 0x61, 0x67, 0xbd, 0x66, 0xb6, 0x5a, 0x3d, 0xdb, 0x99, 0x37, 0x3d,
  0x56, 0x7e, 0x31, 0xbd, 0x14, 0xd6, 0xbb, 0x3d, 0x28, 0xfc, 0xab, 0xbd,
  0x8d, 0xdc, 0x42, 0xbe, 0x06, 0x38, 0x80, 0x3d, 0x4b, 0xbe, 0xac, 0xbe,
  0xa3, 0x7b, 0xba, 0x3d, 0xbf, 0xfd, 0x5b, 0xbb, 0x20, 0xf2, 0x79, 0xbe,
  0x25, 0x9c, 0xf8, 0xbd, 0x6a, 0xb6, 0x13, 0xbd, 0x33, 0x84, 0x05, 0xbe,
  0xd0, 0xfd, 0x38, 0xbd, 0x59, 0x39, 0x6d, 0xbe, 0xb9, 0x80, 0x2d, 0x3d,
  0xa9, 0x51, 0xd6, 0xbc, 0xd1, 0x9b, 0x8a, 0xbd, 0x70, 0x89, 0x27, 0xbe,
  0xcf, 0x95, 0xb6, 0x3d, 0x2c, 0x25, 0xe6, 0x3c, 0x3d, 0x8a, 0x70, 0xbd,
  0xe4, 0x85, 0xc1, 0x3d, 0x09, 0x57, 0xf4, 0xbd, 0x83, 0xe1, 0x89, 0xbd,
  0x41, 0xb6, 0x7d, 0x3e, 0xf0, 0xd6, 0xc5, 0x3d, 0x9f, 0x72, 0x70, 0xbe,
  0x23, 0x05, 0x28, 0x3e, 0xfc, 0xeb, 0xd4, 0xbd, 0x31, 0x0b, 0x1f, 0xba,
  0xe0, 0x0f, 0x61, 0x3c, 0x28, 0x74, 0x37, 0xbc, 0x72, 0x5a, 0x11, 0x3e,
  0xa3, 0x41, 0x18, 0xbe, 0xb1, 0xdc, 0x3a, 0xbe, 0x46, 0xef, 0xcc, 0x3c,
  0xe0, 0xf9, 0xfd, 0xbd, 0x58, 0x0a, 0x45, 0xbd, 0x18, 0x2e, 0x89, 0x3d,
  0x36, 0x85, 0x55, 0xbd, 0xa9, 0xb2, 0x7f, 0x3e, 0x36, 0xe1, 0x74, 0xbe,
  0x50, 0x56, 0x91, 0x3d, 0x1f, 0xb1, 0x1e, 0xbe, 0xe1, 0x5c, 0xbd, 0xbd,
  0xa1, 0x73, 0x82, 0x3e, 0xa6, 0x7c, 0x42, 0x3e, 0x52, 0xbb, 0x47, 0xbe,
  0xa7, 0xdd, 0xbd, 0x3d, 0x3f, 0x00, 0x2f, 0xbf, 0x6f, 0x2c, 0xe0, 0x3d,
  0x39, 0xda, 0x69, 0xbe, 0x26, 0x7d, 0x1b, 0xbe, 0x6f, 0x55, 0x21, 0x3a,
  0xa3, 0xcb, 0xa1, 0x3d, 0x97, 0xbb, 0x3a, 0xbe, 0xc4, 0xe1, 0x25, 0xbe,
  0xd1, 0xfc, 0x57, 0xbe, 0xbb, 0x7d, 0x06, 0xbe, 0xcf, 0x95, 0x95, 0xbd,
  0xaf, 0xf3, 0x35, 0xbd, 0x94, 0x97, 0x8e, 0x3e, 0xe7, 0x64, 0x9e, 0xbb,
  0xa2, 0xa2, 0x82, 0xbc, 0xf1, 0x45, 0xaf, 0x3d, 0x32, 0x59, 0x2c, 0xbd,
  0x33, 0xd2, 0x0c, 0xbe, 0xd5, 0xa3, 0x3b, 0xbc, 0xf7, 0xb4, 0x70, 0xbd,
  0xba, 0x16, 0x9e, 0xbd, 0x8a, 0x69, 0x1d, 0x3d, 0x85, 0xf3, 0xb3, 0xbc,
  0x5e, 0x70, 0x1a, 0x3e, 0x13, 0x2f, 0x55, 0xbd, 0xf9, 0xe9, 0x03, 0xbe,
  0x9b, 0xa7, 0x99, 0xbd, 0xfa, 0x8b, 0x6a, 0x3d, 0x37, 0xea, 0x33, 0xbd,
  0x2c, 0xc7, 0xf3, 0x3c, 0x01, 0xc3, 0x25, 0xbd, 0x90, 0xab, 0xb6, 0x3c,
  0x16, 0x3f, 0x4f, 0xbd, 0x6f, 0x5b, 0x06, 0xbe, 0x2b, 0x2d, 0x34, 0xbc,
  0xc5, 0x91, 0x8f, 0x3e, 0x91, 0x69, 0xf2, 0x3d, 0x62, 0x87, 0x2e, 0x3d,
  0xa4, 0xf1, 0x26, 0xbc, 0xf8, 0x98, 0x86, 0xbc, 0x24, 0x1e, 0x80, 0xbc,
  0x7a, 0x60, 0xb7, 0xbb, 0x04, 0x6b, 0xd7, 0xbd, 0x95, 0x91, 0x47, 0xbe,
  0xdf, 0xe0, 0xf7, 0xbd, 0xb1, 0x85, 0x8f, 0xbd, 0x7a, 0x43, 0x4c, 0xbe,
  0x7c, 0x73, 0xdb, 0xbd, 0x3b, 0x1a, 0xbd, 0xbd, 0x3c, 0x51, 0xb4, 0xbc,
  0xd5, 0x19, 0x2f, 0xbd, 0xa9, 0xed, 0x0c, 0xbf, 0x81, 0x58, 0x1d, 0x3e,
  0xf9, 0xcc, 0x08, 0xbc, 0xa4, 0xba, 0x20, 0xbe, 0xc5, 0x1d, 0x1b, 0xbe,
  0x59, 0x83, 0x55, 0xbd, 0x04, 0x28, 0x5a, 0xbd, 0x97, 0xc4, 0xc6, 0xbc,
  0x19, 0x7c, 0xe0, 0xbb, 0x38, 0x09, 0x8a, 0x3d, 0xab, 0xbf, 0xd0, 0x3d,
  0x35, 0xdb, 0xb7, 0xbd, 0xb2, 0x64, 0xa0, 0xbd, 0x9b, 0xc6, 0xaa, 0xbc,
  0x94, 0xd6, 0x3c, 0xbd, 0x73, 0xb5, 0x47, 0x3e, 0x07, 0x0a, 0x51, 0x3e,
  0xf1, 0x3c, 0x2a, 0xbd, 0x9f, 0xee, 0xc3, 0xbd, 0x64, 0x26, 0x9a, 0xbd,
  0x74, 0x2b, 0x94, 0x3c, 0x4f, 0xfe, 0x0b, 0x3e, 0xfe, 0x67, 0xf0, 0x3a,
  0xea, 0xd1, 0x00, 0xbf, 0x77, 0x09, 0x10, 0xbe, 0x99, 0x8c, 0x2f, 0xbc,
  0xd4, 0xd8, 0x36, 0x3e, 0x15, 0x71, 0x67, 0xbd, 0x58, 0x70, 0xb6, 0x3c,
  0x0c, 0xfb, 0x21, 0xbe, 0xca, 0x0c, 0x06, 0x3e, 0xec, 0x59, 0x58, 0xbe,
  0x1b, 0x77, 0x49, 0xbe, 0x22, 0x5d, 0x98, 0x3e, 0xd7, 0xe7, 0x68, 0xbd,
  0x1b, 0xf5, 0x5c, 0x3d, 0xb4, 0xce, 0xae, 0xbe, 0x5a, 0x6c, 0x72, 0xbd,
  0xc0, 0x09, 0xdf, 0x3b, 0xbc, 0x09, 0x0a, 0xbd, 0x81, 0xb0, 0x4e, 0x3d,
  0x8c, 0x34, 0xc4, 0xbd, 0x79, 0x27, 0x5f, 0xbd, 0x22, 0x71, 0x08, 0x3c,
  0x3e, 0x4f, 0x7a, 0xbe, 0x48, 0xe3, 0x2c, 0x3d, 0x2d, 0x51, 0x65, 0xbd,
  0xf9, 0xee, 0x6a, 0xbe, 0x7a, 0x38, 0x4e, 0x3d, 0x10, 0x2e, 0x0a, 0xbe,
  0x80, 0xee, 0x46, 0xb9, 0x0a, 0xce, 0x98, 0x3d, 0x1c, 0xa7, 0x9c, 0xbe,
  0x52, 0x09, 0x0a, 0xbd, 0x2e, 0x26, 0x63, 0xbe, 0x31, 0x5b, 0xbd, 0xbd,
  0xf5, 0xbf, 0xfd, 0xbb, 0x7f, 0x96, 0x02, 0xbf, 0xa4, 0xf9, 0x28, 0x3d,
  0x76, 0x28, 0xbc, 0xbc, 0xf2, 0x57, 0x84, 0xbe, 0x6d, 0x84, 0xbf, 0xbd,
  0xaf, 0x09, 0xcb, 0xbd, 0x26, 0x4b, 0x29, 0xbe, 0xbf, 0x0b, 0xd3, 0x3e,
  0x44, 0x3c, 0xa4, 0xbd, 0xd7, 0x57, 0xb0, 0x3c, 0x65, 0xbd, 0x8a, 0x3d,
  0xd7, 0xad, 0x82, 0xbe, 0x2c, 0x01, 0x2c, 0xbe, 0x93, 0xe9, 0xed, 0x3d,
  0x1c, 0x91, 0x17, 0xbd, 0xc9, 0x51, 0x63, 0xbe, 0x6b, 0x95, 0x7f, 0xbc,
  0x1d, 0x16, 0x8f, 0xba, 0xa0, 0x87, 0x91, 0xbd, 0x49, 0x96, 0x59, 0xbe,
  0x66, 0x5a, 0xfa, 0xbc, 0x7a, 0x14, 0xe1, 0x3c, 0x69, 0xd4, 0x85, 0xbc,
  0x0f, 0xef, 0x60, 0xbe, 0x6d, 0xd5, 0x61, 0x3e, 0xf3, 0x2f, 0x73, 0x3c,
  0xb9, 0xcd, 0xd1, 0xbd, 0x4a, 0x24, 0x11, 0xbe, 0x20, 0x37, 0xc7, 0x3d,
  0x69, 0x6d, 0xc3, 0xbb, 0x65, 0xcc, 0xca, 0xbd, 0x76, 0x6e, 0x58, 0xbd,
  0x29, 0x08, 0xc6, 0xbb, 0x4c, 0xb8, 0xfa, 0x3b, 0xfa, 0x6b, 0x18, 0xbc,
  0x19, 0x66, 0xbd, 0xbd, 0x69, 0xe9, 0xf8, 0xbd, 0xd0, 0xdb, 0x0b, 0xbd,
  0x26, 0x90, 0xd6, 0xbd, 0xe6, 0x4b, 0x2e, 0x3e, 0x50, 0xa1, 0xba, 0x3d,
  0xeb, 0xa9, 0x3b, 0x3d, 0xbe, 0x76, 0x81, 0x3d, 0xde, 0xf3, 0x15, 0xbe,
  0xb6, 0x38, 0x05, 0xbe, 0xbd, 0xbb, 0xbe, 0x3c, 0x3b, 0x49, 0xab, 0xbd,
  0xd5, 0x4e, 0x86, 0x3d, 0x07, 0xfb, 0x48, 0xbd, 0xe2, 0x5b, 0x86, 0xbb,
  0x64, 0xac, 0x51, 0xbd, 0x9b, 0xe0, 0xa7, 0xbd, 0x21, 0xc6, 0xa6, 0xbd,
  0x32, 0x38, 0x2a, 0xbd, 0x72, 0xd4, 0xd5, 0xbc, 0x0f, 0x14, 0x66, 0x3e,
  0x5a, 0x41, 0x88, 0x3d, 0xd8, 0x30, 0xda, 0x3d, 0x84, 0x63, 0x14, 0x3b,
  0x99, 0x8d, 0x45, 0xbd, 0xc4, 0x96, 0x70, 0xbd, 0x2b, 0xe1, 0xb9, 0xbe,
  0xe7, 0xc5, 0x82, 0xbc, 0xf2, 0xdf, 0xa6, 0x3d, 0x3b, 0x9c, 0x81, 0xbe,
  0x60, 0x5a, 0xbb, 0x3d, 0xce, 0xd1, 0x5b, 0xbd, 0x69, 0x16, 0x5d, 0xbe,
  0x00, 0x19, 0xf3, 0xbc, 0x4f, 0xc9, 0x3e, 0xbf, 0x93, 0x25, 0xb1, 0xbd,
  0xd1, 0x9b, 0x36, 0x3d, 0x5f, 0xe7, 0x06, 0xbe, 0xc6, 0x65, 0xf8, 0x3d,
  0x20, 0xd2, 0x9b, 0xbd, 0xfd, 0xfe, 0x07, 0xbf, 0xda, 0x02, 0xc6, 0x3d,
  0xe2, 0x21, 0xbf, 0x3c, 0xdd, 0x7c, 0xaa, 0xbe, 0x69, 0xed, 0x34, 0x3e,
  0x0a, 0xe3, 0xe0, 0xbe, 0x31, 0xcb, 0x2b, 0x3e, 0x48, 0x17, 0x0f, 0xbd,
  0x96, 0xa4, 0xf1, 0xbe, 0xd9, 0x70, 0xd0, 0xbe, 0x9c, 0x98, 0xd2, 0x3d,
  0x0b, 0xaa, 0xc9, 0xbc, 0xdc, 0xcc, 0x35, 0xbe, 0x1e, 0x50, 0x5a, 0x3e,
  0x2f, 0x39, 0x9b, 0xbe, 0xb9, 0x8d, 0xc5, 0xbc, 0x32, 0xa1, 0xff, 0xbd,
  0x79, 0x78, 0x06, 0x3c, 0x9e, 0xdd, 0xff, 0xff, 0x10, 0x00, 0x00, 0x00,
  0x0a, 0x00, 0x00, 0x00, 0x1c, 0x00, 0x00, 0x00, 0x38, 0x00, 0x00, 0x00,
  0x04, 0x00, 0x00, 0x00, 0x10, 0x00, 0x00, 0x00, 0x04, 0x00, 0x00, 0x00,
  0x01, 0x00, 0x00, 0x00, 0x08, 0x00, 0x00, 0x00, 0x1a, 0x00, 0x00, 0x00,
  0x73, 0x65, 0x71, 0x75, 0x65, 0x6e, 0x74, 0x69, 0x61, 0x6c, 0x2f, 0x63,
  0x6f, 0x6e, 0x76, 0x32, 0x64, 0x5f, 0x31, 0x2f, 0x43, 0x6f, 0x6e, 0x76,
  0x32, 0x44, 0x00, 0x00, 0x14, 0xdd, 0xff, 0xff, 0x1e, 0xde, 0xff, 0xff,
  0x04, 0x00, 0x00, 0x00, 0x80, 0x01, 0x00, 0x00, 0xf4, 0xd4, 0x37, 0x3e,
  0x7b, 0x7c, 0x57, 0x3d, 0x42, 0x0f, 0xb8, 0xbd, 0xcf, 0x58, 0x52, 0x3d,
  0xb3, 0xf0, 0x51, 0x3d, 0xb1, 0x91, 0x77, 0xbc, 0x1c, 0x59, 0x2c, 0xbe,
  0x97, 0x4d, 0xcb, 0xbb, 0x92, 0x60, 0x95, 0x3c, 0x9f, 0x71, 0x28, 0xbe,
  0x3f, 0x55, 0xf8, 0x3b, 0xf2, 0x36, 0x0d, 0xbd, 0xac, 0x60, 0x0d, 0x3d,
  0x4e, 0xdb, 0xa6, 0x3c, 0xa3, 0xe4, 0x3f, 0xbd, 0x6a, 0x08, 0x17, 0x3d,
  0x6e, 0xf0, 0xed, 0xbd, 0xbc, 0xd8, 0x76, 0xbd, 0x8d, 0x2f, 0x6e, 0xbd,
  0xa7, 0xdd, 0xbb, 0xbd, 0x8e, 0xb6, 0x3c, 0xbd, 0x23, 0x95, 0xde, 0xbd,
  0x95, 0x2b, 0xe8, 0xbd, 0x06, 0x59, 0xe7, 0x3d, 0xed, 0x26, 0xc8, 0xbd,
  0x75, 0x1a, 0x71, 0xbe, 0x88, 0x4c, 0x26, 0xbd, 0x1b, 0x5d, 0x07, 0xbe,
  0xc5, 0x9d, 0x03, 0x3e, 0xab, 0x08, 0x20, 0xbe, 0xb8, 0xd9, 0x00, 0x3e,
  0x13, 0x34, 0x51, 0x3d, 0xf5, 0xb9, 0x8f, 0x3e, 0x35, 0xd5, 0x8f, 0xbd,
  0x54, 0xa6, 0xc0, 0xbd, 0xfc, 0x54, 0x0c, 0xbc, 0xc0, 0xaa, 0xab, 0xbd,
  0x22, 0x4c, 0x3c, 0xbe, 0xd1, 0x4d, 0x3f, 0x3d, 0x90, 0xa3, 0xb6, 0x3d,
  0xb0, 0x39, 0x40, 0x3e, 0x2b, 0xde, 0x29, 0xbe, 0x37, 0xea, 0xb0, 0xbc,
  0xea, 0x54, 0xcd, 0xbd, 0xa1, 0xb8, 0x9f, 0x3d, 0x85, 0x9d, 0x0c, 0xbe,
  0xa4, 0xa6, 0xbf, 0x3d, 0xba, 0x8d, 0xeb, 0xbd, 0x33, 0x3f, 0x84, 0xbd,
  0xfe, 0xec, 0x5d, 0xbd, 0x8f, 0x16, 0x84, 0xbe, 0x86, 0xdd, 0xbc, 0xbd,
  0x48, 0xd4, 0x9e, 0xbd, 0xf5, 0x23, 0xc6, 0xbd, 0xe8, 0x22, 0x0a, 0x3e,
  0xaa, 0xd1, 0x81, 0x3d, 0x11, 0x9d, 0x82, 0x3e, 0xab, 0x71, 0x3a, 0x3c,
  0x1f, 0x61, 0x6e, 0x3d, 0x5b, 0x66, 0xf5, 0x3d, 0x9b, 0x50, 0xb1, 0xbe,
  0x45, 0x2a, 0x2e, 0xbc, 0x9d, 0x89, 0x05, 0x3e, 0x25, 0x99, 0x1d, 0xbd,
  0x83, 0x7b, 0xab, 0xbd, 0x9c, 0x45, 0x79, 0x3d, 0xd3, 0xbe, 0x36, 0x3e,
  0x83, 0x2b, 0x0d, 0xba, 0x26, 0xf4, 0xd9, 0xbd, 0x7b, 0x9f, 0xeb, 0x3d,
  0x7a, 0x38, 0x62, 0xbd, 0xea, 0x9f, 0x84, 0x3d, 0x1f, 0x23, 0x49, 0xbd,
  0xb8, 0x09, 0x46, 0xbe, 0xeb, 0x55, 0x86, 0xbd, 0x85, 0x6d, 0x25, 0xbd,
  0x66, 0xc9, 0x0b, 0xbe, 0x3f, 0xf3, 0x1b, 0x3d, 0x34, 0x89, 0x17, 0x3c,
  0xf6, 0x86, 0x37, 0x3d, 0xf5, 0x8c, 0x7a, 0xbc, 0x33, 0x3f, 0xe5, 0xbc,
  0x26, 0x36, 0x24, 0x3d, 0x74, 0xef, 0x38, 0xbe, 0xc7, 0x08, 0xd4, 0xbd,
  0x39, 0xe6, 0x26, 0x3d, 0x72, 0xa0, 0x20, 0xbe, 0x01, 0x11, 0x95, 0xbd,
  0xda, 0x84, 0x57, 0x3c, 0xe5, 0x1f, 0x0a, 0xbd, 0xb5, 0xbc, 0xf6, 0xbd,
  0xe6, 0x53, 0x54, 0xbd, 0xf1, 0x3f, 0xa2, 0x3d, 0x7b, 0x4b, 0xfd, 0xbd,
  0x1c, 0x93, 0xd0, 0xbd, 0xdd, 0x60, 0x28, 0x3c, 0x76, 0xdf, 0xff, 0xff,
  0x10, 0x00, 0x00, 0x00, 0x09, 0x00, 0x00, 0x00, 0x1c, 0x00, 0x00, 0x00,
  0x38, 0x00, 0x00, 0x00, 0x04, 0x00, 0x00, 0x00, 0x08, 0x00, 0x00, 0x00,
  0x04, 0x00, 0x00, 0x00, 0x03, 0x00, 0x00, 0x00, 0x01, 0x00, 0x00, 0x00,
  0x18, 0x00, 0x00, 0x00, 0x73, 0x65, 0x71, 0x75, 0x65, 0x6e, 0x74, 0x69,
  0x61, 0x6c, 0x2f, 0x63, 0x6f, 0x6e, 0x76, 0x32, 0x64, 0x2f, 0x43, 0x6f,
  0x6e, 0x76, 0x32, 0x44, 0x00, 0x00, 0x00, 0x00, 0xec, 0xde, 0xff, 0xff,
  0xf6, 0xdf, 0xff, 0xff, 0x04, 0x00, 0x00, 0x00, 0x40, 0x01, 0x00, 0x00,
  0x08, 0xdd, 0x78, 0x3e, 0x4b, 0x30, 0xed, 0x3d, 0x57, 0x79, 0x23, 0x3e,
  0x67, 0x01, 0x2e, 0xbe, 0x4c, 0x67, 0x2c, 0x3e, 0xc7, 0x49, 0xac, 0x3d,
  0xc1, 0x81, 0xa0, 0x3d, 0xe4, 0x9f, 0x34, 0xbd, 0x69, 0x9d, 0x34, 0x3e,
  0x2a, 0x7b, 0x9e, 0x3d, 0xda, 0x42, 0x2c, 0x3d, 0x03, 0x86, 0x95, 0x3d,
  0xc1, 0x44, 0x88, 0x3d, 0xa8, 0x41, 0x54, 0xbe, 0x06, 0x53, 0x98, 0x3e,
  0xa8, 0x2c, 0xad, 0x3e, 0xdf, 0x52, 0x66, 0x3e, 0xdd, 0x3c, 0x35, 0xbe,
  0x20, 0xc8, 0x25, 0x3e, 0x6f, 0xa9, 0xef, 0xbd, 0x31, 0xe9, 0x9e, 0x3d,
  0x2f, 0x8b, 0xbf, 0x3d, 0xce, 0xeb, 0x02, 0x3d, 0x58, 0x44, 0x17, 0xbe,
  0xb3, 0xbd, 0xd3, 0x3d, 0x33, 0x74, 0x7a, 0x3e, 0x9e, 0x2e, 0xee, 0x3d,
  0x29, 0x9c, 0xcc, 0xbc, 0x43, 0x66, 0x45, 0x3e, 0x0b, 0x91, 0x22, 0x3e,
  0xda, 0xbe, 0x83, 0x3e, 0xe9, 0xbd, 0xd5, 0x3e, 0xae, 0xbf, 0x79, 0x3e,
  0x4d, 0xc5, 0xa7, 0xbd, 0x83, 0x5b, 0xa4, 0x3d, 0x97, 0x7d, 0xdf, 0xbd,
  0x09, 0xf2, 0x9e, 0x3e, 0xa2, 0xb3, 0x91, 0x3c, 0xc6, 0xf0, 0x4a, 0x3c,
  0x65, 0x1b, 0x01, 0x3e, 0x7e, 0xd1, 0x35, 0x3e, 0xab, 0x05, 0xe2, 0x3d,
  0x00, 0x1e, 0x01, 0x3c, 0xf9, 0xce, 0x64, 0xbe, 0x35, 0x70, 0xa9, 0x3d,
  0xb5, 0xfe, 0xc1, 0xbc, 0x71, 0x61, 0xdb, 0x3e, 0xc1, 0xf9, 0xe0, 0x3e,
  0x88, 0x4c, 0xa6, 0x3d, 0x4e, 0xc5, 0x01, 0xbe, 0x4b, 0x62, 0xda, 0xbc,
  0xf6, 0xce, 0xdd, 0xbd, 0x7e, 0x72, 0x52, 0xbe, 0x1e, 0x24, 0x9d, 0xbc,
  0x63, 0xfa, 0xd2, 0x3d, 0xb2, 0xc3, 0x9d, 0xbe, 0x21, 0x76, 0x85, 0x3d,
  0x33, 0x17, 0x87, 0x3e, 0x4d, 0x37, 0x17, 0xbe, 0x91, 0x9b, 0x05, 0xbe,
  0xf1, 0xc4, 0x7f, 0x3d, 0xfa, 0xfd, 0xa9, 0xbd, 0x02, 0xff, 0x53, 0xbe,
  0x0b, 0xcc, 0x98, 0x3e, 0x04, 0xeb, 0x5e, 0xbd, 0x44, 0xf2, 0x0f, 0x3e,
  0xfd, 0x5b, 0x81, 0x3b, 0x06, 0xc2, 0x84, 0xbe, 0x66, 0x88, 0x94, 0x3e,
  0x88, 0xe5, 0x84, 0xbd, 0x76, 0x27, 0x2b, 0xbc, 0xa3, 0xaf, 0xa9, 0x3d,
  0x9d, 0x5b, 0xff, 0x3b, 0x28, 0x1b, 0x63, 0x3e, 0x31, 0x2c, 0x46, 0x3e,
  0x20, 0x06, 0x29, 0x3e, 0x83, 0x67, 0xd2, 0x3d, 0xcb, 0xf2, 0x38, 0x3e,
  0x6c, 0x0a, 0xd5, 0x3e, 0x2d, 0x87, 0xa2, 0x3e, 0x0e, 0xe1, 0xff, 0xff,
  0x10, 0x00, 0x00, 0x00, 0x08, 0x00, 0x00, 0x00, 0x14, 0x00, 0x00, 0x00,
  0x30, 0x00, 0x00, 0x00, 0x02, 0x00, 0x00, 0x00, 0x05, 0x00, 0x00, 0x00,
  0x10, 0x00, 0x00, 0x00, 0x19, 0x00, 0x00, 0x00, 0x73, 0x65, 0x71, 0x75,
  0x65, 0x6e, 0x74, 0x69, 0x61, 0x6c, 0x2f, 0x64, 0x65, 0x6e, 0x73, 0x65,
  0x5f, 0x31, 0x2f, 0x4d, 0x61, 0x74, 0x4d, 0x75, 0x6c, 0x00, 0x00, 0x00,
  0x7c, 0xe0, 0xff, 0xff, 0x86, 0xe1, 0xff, 0xff, 0x04, 0x00, 0x00, 0x00,
  0x00, 0x1c, 0x00, 0x00, 0xeb, 0x8c, 0x98, 0x3c, 0xad, 0x54, 0x9f, 0xbd,
  0x2a, 0xd9, 0x04, 0xbf, 0x33, 0x22, 0xc1, 0x3b, 0x74, 0x47, 0x90, 0xbb,
  0xdf, 0x98, 0xda, 0xbc, 0xcb, 0xab, 0xc7, 0x3d, 0x94, 0xf9, 0x50, 0xbd,
  0x7f, 0xb1, 0xed, 0x3d, 0x8f, 0x09, 0x22, 0xbd, 0x89, 0xf7, 0x15, 0xbd,
  0xc1, 0x38, 0x94, 0xbc, 0xcd, 0xaf, 0xb5, 0xbc, 0x69, 0xc1, 0x56, 0xbd,
  0x3a, 0x79, 0xa8, 0xbb, 0x13, 0xd6, 0x60, 0x3d, 0x21, 0xfd, 0xbe, 0xba,
  0x52, 0x91, 0x9e, 0x3d, 0x5c, 0x02, 0x06, 0x3e, 0xed, 0x7a, 0x2e, 0xbc,
  0x00, 0x1b, 0x7a, 0x3d, 0x9f, 0x3b, 0x89, 0x3d, 0x34, 0x70, 0x34, 0x3d,
  0xc9, 0xcd, 0xbc, 0x3d, 0xfa, 0xe3, 0x03, 0x3e, 0x5f, 0xb2, 0x05, 0xbe,
  0x73, 0x4e, 0xdb, 0xbc, 0x12, 0x18, 0x38, 0x3e, 0x84, 0x55, 0x2d, 0xbd,
  0xff, 0x68, 0xe2, 0xbc, 0x8b, 0xb9, 0x50, 0xbc, 0xa3, 0x90, 0x85, 0x3d,
  0x6d, 0x8f, 0x41, 0xbc, 0x5e, 0x43, 0x2a, 0x3e, 0xb5, 0x0d, 0x79, 0x3d,
  0x55, 0x04, 0x55, 0x3b, 0xb4, 0x16, 0xc6, 0x3c, 0x05, 0x71, 0x1b, 0xbd,
  0xf4, 0x9d, 0x03, 0x3e, 0x52, 0xcd, 0x5d, 0x3d, 0xd7, 0x21, 0x0c, 0x3e,
  0xc1, 0x4a, 0x1c, 0xbe, 0x68, 0x57, 0x49, 0xbd, 0x84, 0x55, 0x57, 0x3e,
  0x06, 0x42, 0x89, 0xbd, 0x1e, 0x27, 0xe4, 0x3d, 0xb0, 0x1d, 0x09, 0xbd,
  0x69, 0x55, 0xd7, 0x3d, 0x21, 0x27, 0x3e, 0xbd, 0xf0, 0x24, 0xa8, 0x3a,
  0x9c, 0x82, 0xbd, 0xba, 0x66, 0x0e, 0x08, 0x3c, 0x75, 0x1c, 0x82, 0x3d,
  0x52, 0x33, 0xb8, 0x3d, 0xf8, 0x97, 0x02, 0x3e, 0x1e, 0xb7, 0xbf, 0xbc,
  0x26, 0x80, 0xa0, 0x3c, 0x92, 0xba, 0xdd, 0xbc, 0xa6, 0x51, 0xa1, 0xbd,
  0x2a, 0x86, 0x9e, 0x3d, 0x7a, 0x06, 0x19, 0xbc, 0x02, 0x59, 0xa8, 0x3c,
  0x0a, 0xc5, 0x37, 0xbd, 0x60, 0xc6, 0x2e, 0x3e, 0x76, 0x47, 0xa4, 0x39,
  0x19, 0xd4, 0x5e, 0xbb, 0xab, 0xf6, 0xfa, 0xbd, 0x4d, 0xa6, 0xa2, 0xbc,
  0xd9, 0x41, 0xe3, 0x3d, 0x23, 0x69, 0xfc, 0xbc, 0x66, 0xf2, 0x0a, 0x3d,
  0x20, 0x37, 0x6f, 0x3d, 0x20, 0x17, 0xb9, 0x3d, 0x36, 0x97, 0x27, 0xbd,
  0x3d, 0xee, 0x5e, 0xbd, 0xa8, 0x68, 0x8a, 0x3e, 0x82, 0x21, 0x6f, 0x3c,
  0xe1, 0xd2, 0x88, 0x3d, 0xa5, 0x2c, 0x3d, 0xbd, 0x44, 0x71, 0xda, 0x3d,
  0xc9, 0x04, 0x84, 0xbb, 0xa1, 0x7c, 0x50, 0x3c, 0x61, 0xdd, 0x03, 0xbe,
  0xfd, 0xda, 0x27, 0x3d, 0xc7, 0x7b, 0x53, 0x3d, 0xca, 0xfc, 0xc1, 0x3d,
  0xb1, 0xdd, 0x02, 0x3e, 0x63, 0x70, 0x10, 0x3d, 0x81, 0xe2, 0x2e, 0x3e,
  0xba, 0x16, 0x0c, 0xbd, 0xf5, 0x57, 0xea, 0x3c, 0x91, 0x03, 0xc5, 0x3e,
  0xae, 0x42, 0x37, 0xbc, 0x6c, 0x01, 0xad, 0x3c, 0x3b, 0x8c, 0x2d, 0x3d,
  0x45, 0x7f, 0x51, 0x3d, 0x19, 0x53, 0x96, 0xbc, 0x29, 0xf9, 0x01, 0x3d,
  0xc2, 0xa7, 0x0e, 0x3e, 0x3c, 0x98, 0x38, 0x3d, 0x5d, 0xb9, 0xa0, 0xbc,
  0xa2, 0x8b, 0x46, 0x3d, 0x21, 0x67, 0x1d, 0x3d, 0x23, 0x3c, 0xaa, 0x3c,
  0x7a, 0x37, 0x80, 0x3e, 0xac, 0xd3, 0x1b, 0xbd, 0x88, 0x03, 0x9b, 0xbc,
  0x98, 0xba, 0x8d, 0x3e, 0xaf, 0xc0, 0x70, 0x3c, 0xfc, 0xd2, 0x9b, 0x3d,
  0xc5, 0xa5, 0xbe, 0x3c, 0xf7, 0x79, 0x02, 0x3e, 0x98, 0x66, 0x55, 0xbd,
  0xcd, 0x6d, 0x8a, 0x3e, 0xaa, 0x39, 0x19, 0x3e, 0x46, 0x16, 0x84, 0xbb,
  0x1d, 0xd9, 0xf7, 0x3b, 0xdb, 0x4a, 0x18, 0xbd, 0xbe, 0x9f, 0x49, 0xbd,
  0xda, 0xa1, 0x8e, 0x3d, 0xa7, 0xb9, 0x7e, 0xbd, 0x21, 0x16, 0x9d, 0xbd,
  0x26, 0x61, 0x66, 0x3d, 0xb4, 0xa3, 0x9a, 0xbc, 0xd9, 0xbe, 0xe7, 0x3c,
  0xca, 0xd9, 0x73, 0xbc, 0x11, 0x6a, 0xd4, 0x3d, 0xe0, 0xd7, 0xa5, 0xbe,
  0x91, 0x57, 0xb6, 0x3c, 0xb0, 0x5f, 0x83, 0x3e, 0x59, 0x62, 0x5f, 0x3e,
  0x6b, 0xf7, 0x12, 0xbd, 0xab, 0xc3, 0xea, 0x3d, 0x49, 0xef, 0x24, 0xbc,
  0x67, 0x9b, 0x84, 0xbd, 0x36, 0x29, 0x3d, 0xbe, 0x68, 0x0b, 0x88, 0xbd,
  0xdd, 0xf0, 0x1b, 0xbe, 0x95, 0xe2, 0x08, 0x3d, 0x00, 0x55, 0x30, 0xbd,
  0x3c, 0xe8, 0xf9, 0xbd, 0x8e, 0x94, 0x8b, 0xbd, 0x21, 0xb3, 0x4b, 0x3d,
  0x05, 0x7f, 0x03, 0xbe, 0x17, 0x7a, 0x82, 0x3d, 0xcb, 0x87, 0x48, 0x3e,
  0x02, 0x14, 0x64, 0x3e, 0x3e, 0xc1, 0x1b, 0xbc, 0xc5, 0x1c, 0x89, 0x3e,
  0xb0, 0x2b, 0x90, 0xbe, 0x68, 0x41, 0x4a, 0xbd, 0xf0, 0x0a, 0x5c, 0xbb,
  0x3f, 0xd6, 0x5f, 0x3d, 0x3a, 0x18, 0x8b, 0xbd, 0xe7, 0x95, 0x92, 0x3d,
  0x07, 0x3d, 0xd5, 0xba, 0x97, 0x22, 0xa4, 0xbd, 0x3e, 0x68, 0x4d, 0xbe,
  0xfa, 0x04, 0x20, 0x3d, 0x77, 0x0f, 0x30, 0xbe, 0x69, 0x27, 0x10, 0xbd,
  0x7c, 0x38, 0x47, 0x3e, 0x46, 0xb3, 0x91, 0x3e, 0xc5, 0x80, 0xeb, 0xbc,
  0x77, 0x29, 0x14, 0x3e, 0xe3, 0xed, 0x68, 0xbe, 0xbd, 0x55, 0xa1, 0x3c,
  0xe0, 0xe0, 0x0e, 0xbe, 0x2c, 0x84, 0xab, 0xbb, 0xc3, 0xae, 0xc2, 0xbd,
  0x0a, 0x67, 0x7c, 0x3d, 0x93, 0x83, 0xe4, 0x3d, 0xd9, 0xd5, 0x92, 0xbd,
  0xeb, 0x76, 0x96, 0xbe, 0xf7, 0x08, 0x1a, 0x3d, 0xe1, 0x3d, 0x80, 0xbd,
  0x1c, 0x99, 0x32, 0xbd, 0x44, 0x56, 0x3a, 0x3e, 0x72, 0xd3, 0x8a, 0x3e,
  0x8f, 0x80, 0x9c, 0xbd, 0x58, 0xe2, 0x0a, 0x3e, 0xea, 0x52, 0x03, 0xbe,
  0x07, 0x35, 0x13, 0xbc, 0x62, 0x47, 0x7e, 0xbe, 0x2e, 0x03, 0xde, 0xbb,
  0x09, 0xa5, 0xa1, 0xbd, 0x4e, 0x8d, 0x17, 0x3d, 0xdc, 0xe6, 0xe7, 0x3d,
  0x5b, 0xde, 0xd3, 0xbd, 0x81, 0x7c, 0x86, 0xbe, 0x40, 0xd5, 0x7d, 0x3d,
  0xf9, 0xc2, 0x33, 0xbd, 0x20, 0x3e, 0xc2, 0xbc, 0xe8, 0x31, 0x87, 0x3e,
  0xdf, 0xe1, 0x33, 0x3d, 0x79, 0xa4, 0x03, 0xbe, 0x5c, 0x17, 0xdb, 0x3d,
  0xb8, 0xf1, 0x4d, 0xbe, 0x73, 0x4b, 0x91, 0xbd, 0x13, 0xf5, 0x80, 0xbe,
  0x51, 0x59, 0xba, 0xbd, 0xa2, 0x24, 0x80, 0xbd, 0x75, 0xff, 0x70, 0x3b,
  0xeb, 0xa3, 0xee, 0x3c, 0x89, 0xae, 0x2d, 0xbe, 0xd9, 0x76, 0x54, 0xbe,
  0xc7, 0xfc, 0x8d, 0x3c, 0xd0, 0xc9, 0x2e, 0xbe, 0xa9, 0x36, 0x6b, 0xbd,
  0x3b, 0x79, 0x72, 0x3e, 0x2d, 0x48, 0x11, 0x3e, 0xff, 0xf1, 0x5e, 0xbe,
  0x24, 0x0d, 0x3c, 0x3e, 0xa8, 0x3b, 0xc4, 0xbc, 0xc9, 0x0a, 0x12, 0xbd,
  0x67, 0xf2, 0x3d, 0xbe, 0xeb, 0x5d, 0xd7, 0xbd, 0xcd, 0x35, 0xdf, 0xbc,
  0x4b, 0x8a, 0x08, 0xbd, 0x97, 0xcf, 0x94, 0x3c, 0xc5, 0xdd, 0x42, 0xbe,
  0x4b, 0x0c, 0x56, 0xbe, 0x0c, 0xcf, 0x92, 0xbc, 0x60, 0x85, 0xd0, 0xbe,
  0x78, 0x2e, 0xf3, 0xba, 0x97, 0x0c, 0x1a, 0x3e, 0xf3, 0x53, 0x07, 0xbf,
  0x05, 0xba, 0xbc, 0x3d, 0xd0, 0xcf, 0xa9, 0xbd, 0x18, 0x21, 0xe7, 0xbd,
  0x56, 0xb2, 0x9e, 0x3e, 0x78, 0xad, 0x83, 0xbc, 0x62, 0xb4, 0x1f, 0x3e,
  0xdf, 0xac, 0x0e, 0xbd, 0xb7, 0xe7, 0x0c, 0xbe, 0x8e, 0xbb, 0xa4, 0xbd,
  0x42, 0x11, 0x60, 0xbd, 0x01, 0x1c, 0xae, 0xbe, 0x43, 0x86, 0xa9, 0xbd,
  0x22, 0x2a, 0x73, 0xbe, 0x89, 0x65, 0x6b, 0xbc, 0xaf, 0xba, 0x59, 0x3e,
  0xd7, 0xa0, 0x8f, 0xbd, 0x5c, 0xa4, 0xcb, 0xbd, 0x97, 0x9d, 0x2c, 0x3e,
  0x6a, 0x24, 0x6e, 0xbe, 0x24, 0x97, 0xa4, 0x3e, 0xcf, 0x5a, 0x44, 0xbd,
  0xcc, 0x77, 0x2e, 0x3e, 0xae, 0xaf, 0xcc, 0xbc, 0xc8, 0x72, 0x3d, 0xbd,
  0x1e, 0x46, 0x1a, 0x3d, 0x2a, 0x23, 0x03, 0x3c, 0xd7, 0xd0, 0x08, 0xbe,
  0xf8, 0x5b, 0xfd, 0x3c, 0x90, 0xfe, 0xe1, 0xbd, 0x8e, 0x17, 0xc2, 0x3d,
  0xd4, 0x37, 0xc4, 0x3d, 0x0d, 0x87, 0x7e, 0xbd, 0xeb, 0x23, 0x8d, 0x3c,
  0x04, 0x5d, 0xeb, 0x3d, 0xa8, 0x50, 0x22, 0xbe, 0x64, 0xfc, 0xf0, 0xbd,
  0xf2, 0xd4, 0xe0, 0xbd, 0xe0, 0x69, 0x06, 0x3e, 0x21, 0x5d, 0x9b, 0xbd,
  0xca, 0x89, 0x69, 0xbc, 0xa5, 0x3f, 0xd4, 0xbc, 0xc5, 0x1b, 0x32, 0xbd,
  0x44, 0xb8, 0x02, 0xbe, 0xd2, 0x73, 0x0b, 0x3c, 0xf4, 0x5b, 0x2f, 0xbe,
  0x9e, 0xe8, 0x6d, 0xbd, 0x01, 0x46, 0xfc, 0xbb, 0xfd, 0x8a, 0xa6, 0xbd,
  0xac, 0xdb, 0x2a, 0x3d, 0xea, 0x09, 0xf5, 0x3d, 0x45, 0xea, 0x9e, 0xbe,
  0xb6, 0x47, 0x02, 0xbe, 0x9e, 0x02, 0xb4, 0xbd, 0xc0, 0x9b, 0xb2, 0x3d,
  0xd0, 0x06, 0x84, 0xbc, 0xde, 0x74, 0x8d, 0xbd, 0xef, 0x68, 0xfb, 0x3d,
  0x70, 0x33, 0x35, 0xbe, 0x62, 0xee, 0x88, 0xbd, 0x70, 0x46, 0xd8, 0xbc,
  0x4f, 0x3d, 0x7f, 0xbd, 0x94, 0x94, 0x09, 0x3c, 0xeb, 0xa6, 0x57, 0x3d,
  0xcf, 0xe0, 0x25, 0x3d, 0x1b, 0x46, 0xa4, 0x3d, 0x1e, 0x48, 0x18, 0x3e,
  0x81, 0x82, 0x21, 0xbe, 0x1a, 0xef, 0xdc, 0x3d, 0x3f, 0x56, 0x65, 0xbd,
  0x51, 0x46, 0xba, 0x3d, 0xc5, 0xfb, 0xb1, 0xbd, 0x48, 0x88, 0x64, 0xbd,
  0x93, 0x60, 0x49, 0xbc, 0xf5, 0xbb, 0x84, 0xbd, 0xee, 0xab, 0x64, 0xbe,
  0x90, 0x94, 0x8e, 0x3c, 0xd5, 0xf1, 0x91, 0xbe, 0x2c, 0x90, 0xd0, 0x3b,
  0x8e, 0x09, 0x36, 0x3e, 0x8c, 0x4a, 0xc9, 0x3d, 0x5f, 0x9b, 0xa8, 0x3d,
  0x25, 0x37, 0xde, 0x3d, 0xab, 0x90, 0xc8, 0xbd, 0xed, 0xb2, 0xc7, 0x3d,
  0xd6, 0x63, 0x6b, 0xbe, 0x8b, 0x77, 0xe2, 0x3d, 0xf4, 0xa0, 0x5a, 0xbd,
  0xec, 0xe6, 0x88, 0xbc, 0xea, 0x26, 0x8a, 0x3c, 0x73, 0x25, 0x5f, 0xbd,
  0x09, 0xbb, 0x3e, 0xbe, 0x92, 0x55, 0xb8, 0x3d, 0x41, 0x91, 0x52, 0xbe,
  0x97, 0xc4, 0xde, 0x3c, 0xc0, 0x45, 0x9e, 0x3d, 0xae, 0x0f, 0xda, 0x3d,
  0xf1, 0x69, 0xad, 0x3d, 0x68, 0xf4, 0x37, 0x3d, 0x88, 0x8e, 0x2b, 0x3b,
  0xce, 0x87, 0xa6, 0x3d, 0x20, 0xc8, 0x08, 0xbe, 0x22, 0xc2, 0x0c, 0x3e,
  0xfe, 0xee, 0x86, 0xbd, 0xc3, 0xf4, 0xe7, 0xbd, 0xc9, 0x9d, 0x37, 0xbd,
  0x03, 0x5a, 0x3d, 0xbd, 0xe1, 0xce, 0xa7, 0xbc, 0xa6, 0x5b, 0x41, 0xbc,
  0x7c, 0x3a, 0x14, 0xbd, 0x29, 0xf7, 0x9e, 0xbc, 0x03, 0xfb, 0x93, 0xbe,
  0x30, 0x42, 0x80, 0xbe, 0x24, 0xff, 0xf7, 0x3c, 0xda, 0xaf, 0xcc, 0xbb,
  0x54, 0x90, 0xe8, 0x3c, 0x36, 0xf4, 0x07, 0x3e, 0xc9, 0xa7, 0x76, 0xbd,
  0x68, 0xa5, 0xea, 0xbc, 0x0f, 0x3e, 0xab, 0x3d, 0xae, 0xbb, 0x63, 0x3d,
  0x3e, 0x06, 0xa7, 0xbd, 0xd3, 0x85, 0x06, 0xbe, 0xf9, 0x79, 0x08, 0xbe,
  0xfa, 0xa8, 0xef, 0xbd, 0x2e, 0x9d, 0x0e, 0x3d, 0xe9, 0x6c, 0x04, 0x3c,
  0x6c, 0xa5, 0xca, 0xbd, 0x51, 0x8e, 0xf6, 0xbe, 0x08, 0xfb, 0x14, 0xbe,
  0x44, 0x82, 0x1c, 0xbe, 0xdf, 0x92, 0xce, 0x3d, 0x6d, 0x93, 0x2a, 0x3d,
  0x68, 0xce, 0x7b, 0xbd, 0x3d, 0x70, 0x38, 0x3c, 0xc5, 0x65, 0xa6, 0x3d,
  0x46, 0x65, 0x20, 0x3d, 0xf0, 0x4b, 0x97, 0xbd, 0x55, 0x0a, 0xfb, 0x3d,
  0x10, 0x08, 0xc7, 0x3e, 0xc7, 0x69, 0x99, 0xba, 0x0a, 0xb0, 0x5d, 0xbd,
  0x21, 0x86, 0x97, 0xbd, 0x75, 0x22, 0x1b, 0xbe, 0xbb, 0xc7, 0xcc, 0xbe,
  0xa8, 0x58, 0x15, 0xbe, 0xa5, 0xfe, 0x98, 0xbd, 0x23, 0x4c, 0x8b, 0x3d,
  0x73, 0x25, 0x07, 0x3e, 0xa0, 0x99, 0xe0, 0x3b, 0xb7, 0xf6, 0xea, 0x3d,
  0xc4, 0x61, 0x59, 0x3d, 0x75, 0x8f, 0x5a, 0xbd, 0xbb, 0xb8, 0x1c, 0xbd,
  0x81, 0xe6, 0xb7, 0x3d, 0xc4, 0xc5, 0x8e, 0x3e, 0x25, 0xc3, 0xe0, 0x3d,
  0x8a, 0x66, 0x29, 0xbd, 0x91, 0xb6, 0x05, 0xbd, 0x07, 0x2f, 0x36, 0xbe,
  0xc0, 0xbd, 0x96, 0xbe, 0x4b, 0x9a, 0x3f, 0xbd, 0x76, 0x75, 0x39, 0xbe,
  0xdd, 0x11, 0xc3, 0x3d, 0x6d, 0x7c, 0x04, 0x3e, 0xd9, 0x74, 0xab, 0x3d,
  0x05, 0xe0, 0x20, 0x3c, 0xa1, 0x82, 0x25, 0x3e, 0xdb, 0x76, 0x50, 0xbd,
  0x57, 0xee, 0xb2, 0xbd, 0xb6, 0x07, 0x1b, 0x3e, 0x62, 0x52, 0x3e, 0x3e,
  0xf5, 0x1d, 0xb5, 0x3d, 0x7d, 0xc6, 0xfd, 0x3c, 0xeb, 0x5c, 0x06, 0xbc,
  0x5b, 0x08, 0x77, 0xbe, 0x51, 0xc7, 0xb7, 0xbd, 0xc1, 0xc4, 0x8f, 0x3d,
  0x49, 0xa5, 0xfd, 0xbd, 0x8f, 0x6c, 0x4d, 0x3e, 0x9e, 0xb1, 0x98, 0xbe,
  0x2a, 0x29, 0xb6, 0x3d, 0xca, 0xee, 0xee, 0x3c, 0xa3, 0x22, 0xa2, 0x3e,
  0x5d, 0x52, 0xa2, 0xbd, 0x37, 0x2a, 0x1d, 0xbd, 0x90, 0x8a, 0x9f, 0xbc,
  0x31, 0xa0, 0x3d, 0x3e, 0xb4, 0x8f, 0xeb, 0xbc, 0x8c, 0x73, 0x83, 0x3e,
  0x6c, 0x0f, 0x9c, 0xbd, 0x2f, 0x60, 0x03, 0xbe, 0xc4, 0xc1, 0x3e, 0xbc,
  0x8d, 0xed, 0xe0, 0x3d, 0xc9, 0xf9, 0xe7, 0x3b, 0x54, 0x81, 0x79, 0x3e,
  0x32, 0x29, 0x49, 0x3d, 0xd5, 0xb4, 0xb5, 0x3d, 0x5a, 0x1d, 0x7e, 0xbd,
  0xd6, 0x20, 0xd3, 0x3d, 0xa2, 0x48, 0xc4, 0xbd, 0x90, 0xb6, 0x1a, 0xbc,
  0xb6, 0x7d, 0x13, 0xbe, 0xb9, 0xc0, 0x42, 0x3e, 0x0a, 0xf5, 0x23, 0xbe,
  0xe3, 0x94, 0x4f, 0x3e, 0xd7, 0x17, 0xad, 0xbd, 0x9f, 0x7c, 0xad, 0xbd,
  0xe6, 0x4b, 0x78, 0xbe, 0xf5, 0xcd, 0xff, 0x3c, 0xa1, 0x45, 0x99, 0xbd,
  0xa3, 0xd3, 0x5f, 0xbd, 0x62, 0xb8, 0x05, 0x3d, 0x33, 0x38, 0x2d, 0x3d,
  0x81, 0xc9, 0x88, 0xbd, 0x6d, 0x03, 0x3b, 0x3d, 0x16, 0xfe, 0xf6, 0xbc,
  0x34, 0xcc, 0x98, 0x3d, 0x6d, 0x54, 0x96, 0x3d, 0xfd, 0x95, 0xfb, 0x3d,
  0x74, 0xbd, 0xf3, 0xbd, 0xa2, 0xab, 0xbd, 0x3e, 0xdf, 0x75, 0x48, 0xbd,
  0x88, 0x3a, 0x8a, 0xbc, 0x2c, 0x63, 0x38, 0x3e, 0xb3, 0xfa, 0x60, 0xbc,
  0xcb, 0x68, 0x51, 0x3c, 0x68, 0xae, 0xa5, 0xbd, 0xf0, 0x6f, 0xc5, 0xbe,
  0x8b, 0xea, 0x3c, 0xbc, 0x95, 0xd6, 0xb2, 0xbd, 0x27, 0x7c, 0x3d, 0xbe,
  0x58, 0x4a, 0x02, 0x3c, 0x88, 0x86, 0xb5, 0x3c, 0x72, 0xb9, 0x91, 0x3d,
  0x5d, 0xbe, 0xa6, 0x3e, 0xaa, 0x85, 0xc1, 0x3b, 0xa5, 0xb1, 0x91, 0x3e,
  0x66, 0x52, 0xd1, 0x3b, 0xaa, 0x55, 0x36, 0xbe, 0xba, 0xf5, 0x83, 0x3e,
  0x80, 0xa8, 0xdd, 0x3c, 0x76, 0xbf, 0x17, 0xbe, 0x78, 0x71, 0x25, 0x3e,
  0x78, 0x7a, 0x4e, 0xbf, 0xd7, 0xc3, 0x20, 0x3e, 0x4e, 0xf5, 0xba, 0xbd,
  0x1d, 0xda, 0x79, 0xbc, 0x0d, 0x5b, 0x09, 0x3d, 0x0b, 0x88, 0xbb, 0x3d,
  0xc8, 0xd4, 0x98, 0xbe, 0xd4, 0xc8, 0x1d, 0x3e, 0x3c, 0x81, 0x06, 0x3d,
  0x37, 0xb0, 0xb8, 0x3d, 0x83, 0xd2, 0x32, 0xbc, 0x4a, 0x68, 0x0d, 0xbe,
  0xe1, 0xe5, 0x4e, 0x3e, 0xec, 0x1f, 0x9e, 0xbd, 0xb4, 0x9c, 0x1b, 0xbd,
  0x7d, 0xce, 0x45, 0x3e, 0x20, 0x57, 0x16, 0xbe, 0x95, 0x67, 0x25, 0x3b,
  0x36, 0xc1, 0x27, 0xbe, 0x00, 0xf6, 0xf6, 0xbc, 0xe1, 0x95, 0x72, 0x3c,
  0x7d, 0x73, 0xb9, 0xba, 0x3a, 0x70, 0x2b, 0xbe, 0x47, 0x22, 0x07, 0xbc,
  0x5c, 0x10, 0x4f, 0x3d, 0x19, 0xa3, 0x2a, 0x3e, 0x49, 0x39, 0x8d, 0xbc,
  0x8a, 0x67, 0xbe, 0xbd, 0x08, 0xcf, 0xcc, 0x3d, 0xb4, 0x97, 0x1e, 0xbe,
  0x31, 0x08, 0x30, 0xbd, 0x2f, 0xb7, 0x37, 0x3e, 0xb9, 0x7d, 0x83, 0xbd,
  0x06, 0x87, 0x71, 0xbd, 0xb3, 0xea, 0x0e, 0xbe, 0xb8, 0xe9, 0x47, 0xbd,
  0x68, 0xa3, 0xd3, 0x3c, 0x2e, 0xd2, 0xad, 0x3c, 0x50, 0xe3, 0x6f, 0xbd,
  0xac, 0x8f, 0x92, 0xbc, 0xba, 0xe6, 0x2d, 0x3d, 0x5b, 0x27, 0x07, 0x3e,
  0x39, 0x3c, 0x4f, 0xbd, 0xd9, 0x21, 0x9a, 0xbd, 0x0a, 0x3a, 0x62, 0x3d,
  0x50, 0x43, 0x35, 0xbd, 0x6a, 0x45, 0xd8, 0xbd, 0x56, 0xb3, 0xf2, 0x3d,
  0x64, 0x27, 0x41, 0xbe, 0xff, 0xe1, 0xe8, 0x3b, 0x4b, 0xe1, 0xa4, 0xbd,
  0xb3, 0xa5, 0xf4, 0xbc, 0x38, 0x7c, 0xb6, 0x3b, 0x6e, 0x0a, 0x92, 0x3c,
  0x58, 0xbc, 0xb5, 0xbd, 0x37, 0x30, 0x72, 0x3d, 0x51, 0x78, 0xfb, 0x3c,
  0xd9, 0x76, 0x9d, 0x3d, 0xdb, 0x70, 0xe0, 0xbc, 0xf2, 0xab, 0xe0, 0xbd,
  0x4e, 0xd1, 0x62, 0x3d, 0xad, 0xa6, 0x32, 0xbd, 0xfd, 0xf3, 0x87, 0xbd,
  0x7b, 0x33, 0xac, 0x3d, 0x9d, 0xb2, 0xad, 0xbd, 0x51, 0x63, 0x00, 0x3d,
  0xfa, 0xb1, 0xef, 0xbc, 0xbd, 0x91, 0xa5, 0xbd, 0xb3, 0x97, 0xbd, 0x3b,
  0xd2, 0x0d, 0xcc, 0x3d, 0xa0, 0xa1, 0x60, 0xbe, 0x10, 0x93, 0x14, 0x3d,
  0xa7, 0xc9, 0x4f, 0x3c, 0x17, 0xbf, 0x03, 0x3d, 0x04, 0xaa, 0xb3, 0xbc,
  0x45, 0x0f, 0x2c, 0xbe, 0x28, 0xd8, 0x0c, 0xbd, 0xb0, 0xae, 0x33, 0xbd,
  0x2d, 0x0e, 0xda, 0x3c, 0x64, 0x51, 0xb2, 0x3c, 0x7c, 0xde, 0x17, 0xbb,
  0x73, 0xa5, 0x8b, 0xbc, 0x5d, 0x71, 0x8f, 0x3c, 0xb8, 0x56, 0x2a, 0xbc,
  0xe7, 0x62, 0x28, 0xbd, 0x54, 0xdd, 0x17, 0x3e, 0xd1, 0x99, 0x5d, 0xbd,
  0x5e, 0xc3, 0x98, 0x3d, 0x6f, 0x0d, 0x96, 0xbc, 0x2c, 0xe0, 0xdb, 0x3d,
  0x17, 0x2d, 0x1c, 0xbd, 0x21, 0x14, 0xba, 0xbe, 0x22, 0x91, 0xd7, 0x3c,
  0x4b, 0x1b, 0x08, 0x3e, 0x81, 0x86, 0xda, 0xbd, 0x63, 0x1f, 0x2e, 0xbe,
  0x46, 0x0a, 0x8b, 0x3e, 0x92, 0x2d, 0xce, 0xbd, 0xaa, 0x4d, 0xcc, 0xba,
  0x33, 0x83, 0x5d, 0xbe, 0xe3, 0x69, 0x48, 0xbe, 0x79, 0x6a, 0x57, 0xbd,
  0x38, 0x8c, 0xfc, 0xbc, 0xc4, 0x12, 0xff, 0xbd, 0xf0, 0x11, 0xe1, 0xbd,
  0xc3, 0x52, 0x1f, 0xbf, 0xaf, 0x43, 0x2b, 0xbd, 0xd8, 0xf1, 0x7b, 0x3e,
  0x92, 0xe6, 0xc8, 0xbe, 0x2a, 0x73, 0x44, 0x3c, 0x7a, 0x73, 0x4b, 0x3e,
  0xe6, 0x41, 0xa8, 0xbd, 0xe9, 0x01, 0x96, 0x3e, 0x08, 0xf2, 0x3d, 0xbe,
  0x8c, 0x58, 0x0c, 0x3e, 0xf7, 0x93, 0x47, 0xbe, 0xe8, 0x8d, 0x76, 0xbe,
  0xa6, 0x04, 0x91, 0xbd, 0xd4, 0xe6, 0x80, 0x3d, 0x51, 0xcc, 0x00, 0xbf,
  0x47, 0x2c, 0xb4, 0xbd, 0xac, 0x97, 0xae, 0xbe, 0x7e, 0xfc, 0x30, 0xbc,
  0x02, 0x19, 0xd6, 0x3d, 0x63, 0x11, 0x12, 0xbe, 0x65, 0x1b, 0xb0, 0x3d,
  0x6a, 0x23, 0x1d, 0x3e, 0x52, 0xb4, 0x9d, 0xbd, 0xb8, 0xdb, 0xa0, 0x3c,
  0xbb, 0xe2, 0x7c, 0xbe, 0xaa, 0x79, 0x21, 0x3e, 0x21, 0xcb, 0xa3, 0x3c,
  0x65, 0x8b, 0x28, 0xbe, 0x45, 0xfe, 0xe9, 0xbd, 0x2b, 0x3d, 0x1a, 0x3d,
  0xec, 0x35, 0x16, 0x3b, 0x74, 0x6c, 0x89, 0x3d, 0x15, 0x06, 0x17, 0xbe,
  0x8d, 0xe2, 0xf6, 0xbd, 0x0c, 0xb5, 0xc4, 0x3d, 0x53, 0x30, 0xa6, 0x3d,
  0x55, 0x5f, 0xe0, 0x3d, 0x84, 0x98, 0xdd, 0x3d, 0x90, 0xcd, 0xb7, 0xbd,
  0xe2, 0xa5, 0xd2, 0x3d, 0xb4, 0xc3, 0xc8, 0x3c, 0xf2, 0x2b, 0x29, 0x3e,
  0x45, 0x52, 0xfa, 0x3c, 0x26, 0x50, 0x8b, 0xbe, 0x2a, 0x50, 0xe5, 0xbb,
  0x98, 0x5d, 0xd8, 0xbd, 0x6b, 0x6f, 0xaa, 0xbc, 0x63, 0x0d, 0x88, 0x3c,
  0xa2, 0x22, 0x14, 0x3d, 0x5f, 0x3e, 0x2c, 0x3c, 0x33, 0x65, 0xb1, 0x3d,
  0x58, 0x31, 0xf3, 0x3d, 0x55, 0xac, 0xd9, 0x3d, 0x98, 0x8f, 0x12, 0x3e,
  0x5e, 0xa2, 0x94, 0xbd, 0x01, 0x0c, 0x3f, 0x3e, 0x87, 0x64, 0x07, 0xbd,
  0x8d, 0xc1, 0xb1, 0x3d, 0x19, 0x58, 0x01, 0xbd, 0xac, 0x3d, 0xec, 0xbd,
  0x7d, 0xb1, 0x4d, 0x3c, 0xb1, 0x60, 0x39, 0xbd, 0xb1, 0x60, 0x50, 0xbd,
  0xb9, 0x6d, 0xb6, 0x3c, 0xb9, 0x65, 0xdb, 0xbd, 0x3b, 0x5a, 0xa6, 0x3a,
  0x0b, 0x0a, 0x70, 0x3d, 0x12, 0x7d, 0x82, 0xbd, 0x79, 0x87, 0x08, 0x3e,
  0x83, 0x0e, 0x62, 0x3d, 0x75, 0x9b, 0x0b, 0xbe, 0xee, 0x0d, 0x51, 0x3e,
  0x90, 0xa1, 0xdb, 0xbd, 0xf2, 0xcf, 0x15, 0x3d, 0x18, 0xb8, 0x22, 0xbd,
  0x2b, 0x00, 0x78, 0xbe, 0x3a, 0xf2, 0x32, 0x3d, 0x6c, 0xbf, 0x4d, 0xbc,
  0x13, 0xe5, 0xfc, 0x3c, 0x31, 0x11, 0x9f, 0xbc, 0x91, 0x2b, 0x79, 0xbd,
  0x67, 0x76, 0xb7, 0xbc, 0x9c, 0xed, 0x0d, 0x3e, 0x01, 0x95, 0xd4, 0xbd,
  0x98, 0x3f, 0xc0, 0xbd, 0xec, 0x21, 0x80, 0x3d, 0xba, 0x05, 0x05, 0xbd,
  0x38, 0x2c, 0x49, 0x3c, 0xe6, 0x21, 0x77, 0xbd, 0x63, 0x5b, 0x96, 0x3d,
  0xd1, 0xe6, 0x12, 0xbe, 0x41, 0x91, 0x81, 0x3c, 0x8f, 0xde, 0xc1, 0x3d,
  0x1c, 0xee, 0x54, 0x3c, 0xd0, 0xab, 0xad, 0x3d, 0xb8, 0x77, 0x8e, 0x3a,
  0x91, 0xd3, 0x58, 0xbc, 0x1b, 0x6d, 0x0d, 0x3e, 0x30, 0x60, 0x8c, 0xbe,
  0xc4, 0x76, 0xd4, 0xbe, 0x49, 0x15, 0x50, 0x3b, 0xa3, 0x8a, 0x87, 0xbd,
  0x8e, 0xd0, 0xf3, 0xbd, 0x0b, 0xc5, 0x00, 0xbe, 0x36, 0xe2, 0x79, 0x3d,
  0xbf, 0x8c, 0x4c, 0xbd, 0x66, 0x26, 0x01, 0x3e, 0xbd, 0x0c, 0xd0, 0xbd,
  0x42, 0x5f, 0xea, 0x3c, 0x12, 0xfc, 0x0d, 0xbe, 0x0c, 0x6e, 0x22, 0xbf,
  0x40, 0x4b, 0x8d, 0xbe, 0x2c, 0x72, 0xe2, 0xbe, 0x1d, 0xbe, 0x0b, 0x3e,
  0x6a, 0xfb, 0x0e, 0x3e, 0x2b, 0x69, 0x53, 0x3d, 0x52, 0x11, 0x1a, 0x3e,
  0x7d, 0xc9, 0x7d, 0x3e, 0x1a, 0x74, 0x2d, 0x3d, 0x0b, 0xd8, 0xb7, 0xbd,
  0x41, 0x43, 0x9a, 0xbd, 0x83, 0xe9, 0x86, 0xbb, 0x48, 0xdb, 0x2b, 0x3e,
  0xd9, 0xcf, 0x85, 0xbd, 0x41, 0x80, 0x38, 0x3d, 0x65, 0x2a, 0xac, 0xbb,
  0x69, 0x14, 0x0f, 0xbd, 0x77, 0x72, 0x04, 0xbe, 0xa5, 0xa5, 0x5b, 0xbd,
  0x68, 0xd6, 0xc9, 0x3d, 0x4f, 0xc6, 0xe8, 0x3d, 0xaf, 0x80, 0x92, 0x3e,
  0x33, 0x08, 0x6a, 0x3d, 0xe9, 0x05, 0x5a, 0x3e, 0x39, 0xe4, 0x38, 0xbe,
  0xea, 0x25, 0xd5, 0xbd, 0x6e, 0x06, 0x4d, 0xbb, 0xb8, 0x42, 0x1d, 0x3e,
  0xa7, 0x99, 0xde, 0x3d, 0x3c, 0x27, 0xa4, 0xbd, 0x37, 0xe6, 0x97, 0x3d,
  0xd0, 0xc9, 0x6f, 0x3e, 0x08, 0x73, 0x53, 0xbe, 0x83, 0x67, 0x1e, 0xbe,
  0x1e, 0x17, 0x86, 0xbd, 0xb8, 0xe0, 0xb5, 0x3d, 0x20, 0xea, 0x28, 0x3d,
  0xfe, 0xc6, 0x0b, 0x3e, 0x1d, 0xf8, 0xbe, 0x3d, 0x87, 0xaf, 0x8a, 0x3d,
  0x59, 0x51, 0x09, 0xbe, 0x39, 0x46, 0x1c, 0xba, 0x03, 0x48, 0xdc, 0xbc,
  0x05, 0xd7, 0xcc, 0xbc, 0xec, 0xd4, 0xbf, 0x3d, 0xb2, 0x49, 0xa8, 0xb9,
  0x2b, 0xbb, 0x4a, 0x3e, 0x1c, 0x36, 0x0c, 0x3e, 0xd9, 0xe1, 0x99, 0xbe,
  0x83, 0x89, 0x2e, 0xbe, 0x28, 0xb7, 0xb6, 0x3d, 0x93, 0xff, 0xdb, 0x3d,
  0x21, 0x49, 0x04, 0x3d, 0x0f, 0x2f, 0x47, 0x3e, 0xa6, 0xc6, 0xbf, 0x3d,
  0x44, 0x69, 0x1e, 0x3e, 0x7b, 0xe6, 0xb3, 0xbd, 0xe4, 0x33, 0x70, 0xbd,
  0xeb, 0x73, 0x1d, 0x3c, 0xd0, 0xa3, 0x0e, 0x3c, 0xdb, 0x13, 0x14, 0x3e,
  0xa8, 0x56, 0xee, 0xba, 0x81, 0x49, 0xeb, 0x3d, 0x73, 0x82, 0x29, 0x3e,
  0x9d, 0xec, 0x3c, 0xbe, 0x57, 0x97, 0x28, 0xbd, 0x8c, 0x3d, 0x3a, 0xbd,
  0xf1, 0x46, 0x2b, 0x3e, 0xbf, 0x67, 0x26, 0x3d, 0xd5, 0x28, 0xba, 0x3d,
  0xc0, 0xdc, 0x26, 0x3d, 0x11, 0x17, 0x13, 0x3e, 0xda, 0x9e, 0x5e, 0xbd,
  0xbe, 0xc7, 0x48, 0xbe, 0xcd, 0x2a, 0x58, 0x3d, 0xb5, 0x69, 0xb4, 0xbd,
  0xae, 0xdc, 0xcf, 0x3d, 0x57, 0xdf, 0xde, 0x3c, 0x74, 0x53, 0xaf, 0x3d,
  0xca, 0x78, 0x50, 0x3e, 0xba, 0x07, 0x8b, 0xbd, 0xca, 0x80, 0x1f, 0x3d,
  0x2a, 0xa2, 0x49, 0xbd, 0xdc, 0x47, 0xd7, 0x3d, 0x49, 0x6b, 0xaf, 0x3e,
  0xb4, 0xd3, 0xe9, 0xbc, 0xa8, 0x54, 0xb0, 0x3c, 0x7e, 0xba, 0x54, 0x3d,
  0x5a, 0x68, 0x11, 0xbd, 0xa9, 0xc5, 0x11, 0xbe, 0xe8, 0xff, 0xaa, 0xbc,
  0x26, 0x45, 0x49, 0xbe, 0xf5, 0x99, 0x0d, 0x3d, 0x84, 0x64, 0xe6, 0x3a,
  0xa5, 0x4e, 0xcd, 0xbc, 0x28, 0xe5, 0xbb, 0x3d, 0xff, 0xcb, 0xc4, 0xbe,
  0xea, 0x78, 0x28, 0xbc, 0x02, 0xef, 0xcf, 0xbe, 0x48, 0x7b, 0x86, 0xbd,
  0xd3, 0xc5, 0x91, 0xbe, 0x82, 0x89, 0x5f, 0x3e, 0x0e, 0x50, 0xa5, 0xbd,
  0x3a, 0xf6, 0x49, 0xbe, 0x36, 0xea, 0x33, 0xbe, 0x87, 0x33, 0x5b, 0xbe,
  0xee, 0x3b, 0x4e, 0xbd, 0xfe, 0x04, 0xc7, 0x3c, 0xbb, 0xc4, 0x25, 0xbe,
  0x7d, 0xe8, 0x7e, 0xbe, 0xd1, 0x25, 0x95, 0xbd, 0x5f, 0x31, 0x45, 0xbe,
  0xba, 0xd9, 0xe5, 0xbd, 0x34, 0xc5, 0x15, 0xbe, 0xb6, 0x57, 0xf2, 0xbd,
  0xeb, 0xc1, 0x33, 0xbe, 0x43, 0x80, 0xe7, 0xbd, 0x85, 0x45, 0x37, 0xbe,
  0x03, 0x69, 0x19, 0x3e, 0xb9, 0x38, 0x5d, 0x3d, 0xf5, 0x19, 0x55, 0xbe,
  0xd8, 0xd0, 0x68, 0xbe, 0x52, 0x4f, 0x6b, 0xbe, 0x3f, 0xec, 0x6d, 0xbe,
  0x20, 0x7d, 0xa7, 0xbd, 0x3a, 0x3b, 0x30, 0xbe, 0xec, 0x10, 0xd1, 0xbc,
  0xc2, 0x6f, 0x0e, 0xbe, 0xcb, 0xdb, 0x38, 0xbe, 0x78, 0xd8, 0x7f, 0xbd,
  0xf3, 0xa8, 0x16, 0xbe, 0x7e, 0xf4, 0x8f, 0xbe, 0xd8, 0x9f, 0x49, 0xbc,
  0x24, 0xc1, 0x0b, 0xbe, 0xd6, 0x16, 0x15, 0xbd, 0x76, 0x61, 0x80, 0x3b,
  0x25, 0xc9, 0x03, 0x3c, 0xb6, 0x6f, 0x04, 0x3e, 0x96, 0xd5, 0x03, 0xbe,
  0xfd, 0x4f, 0x3b, 0x3d, 0xec, 0x9d, 0xc7, 0x3c, 0x1c, 0x55, 0xef, 0xbd,
  0x51, 0x43, 0x0a, 0x3e, 0xee, 0x2b, 0x33, 0xbe, 0x90, 0xda, 0xa1, 0x3c,
  0xcb, 0x5e, 0x7d, 0xbd, 0x44, 0x9f, 0x10, 0xbd, 0x53, 0xea, 0x53, 0xbe,
  0x88, 0xdd, 0x9f, 0xbd, 0x5e, 0xd6, 0x9f, 0x3c, 0x39, 0xb2, 0x54, 0x3c,
  0xf9, 0xf5, 0x7b, 0xbe, 0x32, 0xe2, 0x4d, 0xbe, 0xd5, 0xcb, 0xbe, 0xbd,
  0x6e, 0x90, 0x17, 0xbc, 0x77, 0xbb, 0x5d, 0xbe, 0x6a, 0x07, 0x0e, 0xbe,
  0x0d, 0xcc, 0xc3, 0xbe, 0x5d, 0x09, 0x6d, 0xbe, 0xc5, 0xef, 0x34, 0xbe,
  0x55, 0xbe, 0xdb, 0xbd, 0x0e, 0x4c, 0xfd, 0xbd, 0xc0, 0x0a, 0x35, 0xbc,
  0x9d, 0x3e, 0x2e, 0xbd, 0x8e, 0x5c, 0x70, 0xbe, 0x33, 0x90, 0xd5, 0xbd,
  0x56, 0xea, 0x67, 0xbe, 0xc0, 0x3f, 0xaa, 0x3d, 0xd8, 0x25, 0xdd, 0xbd,
  0x77, 0xaf, 0x3e, 0xbe, 0xb3, 0xe0, 0xbb, 0xbd, 0x8d, 0x14, 0x6d, 0xbe,
  0x68, 0x1c, 0xfc, 0xbb, 0x6f, 0x95, 0x79, 0xbe, 0xc0, 0x59, 0x85, 0x3d,
  0xbd, 0xd4, 0x73, 0x3c, 0x36, 0xda, 0x8c, 0xbc, 0xc4, 0xed, 0x69, 0xbe,
  0xfa, 0x5d, 0x72, 0xbd, 0x59, 0x1a, 0xb9, 0xbc, 0xfa, 0xe4, 0x80, 0xbe,
  0xa5, 0x54, 0x15, 0x3d, 0xad, 0xab, 0x2d, 0xbc, 0xa4, 0x86, 0xfe, 0xbd,
  0x8f, 0x58, 0x76, 0xbd, 0x3b, 0x43, 0x99, 0x3c, 0x83, 0xe6, 0xd0, 0xbd,
  0xa9, 0x29, 0x45, 0xbc, 0x55, 0xd1, 0x2a, 0xbe, 0xf2, 0xf3, 0x53, 0xbe,
  0xab, 0x27, 0x1c, 0xbe, 0x70, 0x8f, 0x47, 0xbd, 0x87, 0xe1, 0x6a, 0xbe,
  0x38, 0x50, 0x14, 0xbe, 0x8b, 0xbe, 0x0b, 0x3d, 0x21, 0xc8, 0x42, 0xbe,
  0xbc, 0x3c, 0x4f, 0xbe, 0xda, 0x16, 0x1a, 0x3e, 0xda, 0x83, 0x05, 0xbe,
  0x56, 0xc2, 0x42, 0xbe, 0x93, 0x20, 0x11, 0xbd, 0x1c, 0xa4, 0x0e, 0xbe,
  0x05, 0x01, 0xa4, 0xbd, 0x2b, 0xc5, 0x48, 0xbe, 0x17, 0xec, 0x49, 0xbe,
  0x42, 0x22, 0xd2, 0xbc, 0x79, 0x21, 0x08, 0x3e, 0x67, 0x55, 0xcf, 0xbb,
  0x26, 0x7b, 0x0d, 0xbe, 0x04, 0x25, 0x7b, 0xbe, 0x95, 0xfa, 0x33, 0x3d,
  0xdc, 0xfc, 0x0b, 0x3c, 0xc2, 0xb6, 0x47, 0xbe, 0x4a, 0x4c, 0xe1, 0xbe,
  0x4e, 0x1d, 0x2b, 0xbe, 0x88, 0x37, 0x1f, 0xbb, 0xa6, 0x6a, 0xb9, 0xbc,
  0xb0, 0x9c, 0x78, 0xbd, 0x3f, 0x53, 0x53, 0xbe, 0x51, 0xc6, 0x37, 0x3e,
  0x8b, 0x4d, 0xaa, 0xbd, 0xe4, 0xad, 0xa3, 0xbd, 0x50, 0xd0, 0x92, 0x3d,
  0x54, 0x89, 0x6c, 0x3d, 0x23, 0x3f, 0x63, 0x3b, 0x81, 0x43, 0x30, 0x3d,
  0x27, 0x57, 0x77, 0x3e, 0x33, 0x13, 0x2c, 0x3d, 0xde, 0x80, 0xe4, 0xbc,
  0xe4, 0xf5, 0x93, 0xbd, 0xdd, 0x3c, 0x29, 0xb9, 0x22, 0x53, 0x9b, 0x3d,
  0xce, 0x84, 0x1f, 0xbe, 0x7c, 0xc3, 0x71, 0xbd, 0xa1, 0x3e, 0x47, 0x3e,
  0xb9, 0x93, 0x81, 0x3d, 0xdb, 0xd3, 0x69, 0xbd, 0xed, 0x38, 0x08, 0xbd,
  0x6a, 0x0e, 0x12, 0x3e, 0x49, 0x16, 0x57, 0xbe, 0x66, 0x33, 0x03, 0x3e,
  0xaf, 0x82, 0xb3, 0xbd, 0x5d, 0x7c, 0x0a, 0x3e, 0x84, 0xce, 0x40, 0xbc,
  0xd2, 0xc1, 0x7e, 0x3d, 0xf6, 0xe4, 0x34, 0x3c, 0xa5, 0xf0, 0xf9, 0x3c,
  0x5e, 0xd1, 0x84, 0x3e, 0xfc, 0xfe, 0xb5, 0x3e, 0x9a, 0x7d, 0x4d, 0x3d,
  0x04, 0xc3, 0xb5, 0x3b, 0x6b, 0xca, 0x6c, 0x3b, 0x8f, 0x2f, 0x5b, 0xbd,
  0xb7, 0x40, 0x26, 0xbd, 0x19, 0x5f, 0x5c, 0x3e, 0x07, 0x4e, 0x79, 0xbe,
  0x9f, 0x9b, 0x0b, 0x3d, 0xc7, 0xf4, 0x04, 0xbe, 0x43, 0x85, 0x40, 0xbe,
  0x29, 0x31, 0x98, 0x3d, 0x2f, 0x80, 0xa9, 0x3d, 0xaa, 0x27, 0x5f, 0xbd,
  0x71, 0xe4, 0xb7, 0xbc, 0x9b, 0x37, 0x0a, 0x3e, 0xc6, 0x71, 0x14, 0x3e,
  0x55, 0x88, 0xf0, 0x3d, 0x7d, 0xda, 0x50, 0xbd, 0xa4, 0xb8, 0x18, 0x3d,
  0x19, 0x59, 0x04, 0x3c, 0xd0, 0x7d, 0xb8, 0xbb, 0x84, 0xc0, 0x70, 0x3d,
  0xf7, 0x8d, 0x0a, 0x3c, 0x62, 0x36, 0x18, 0xbe, 0xcb, 0xc2, 0xc7, 0xbc,
  0xd4, 0xe7, 0xba, 0x3d, 0x02, 0x26, 0x05, 0xbd, 0x02, 0xd6, 0x2d, 0xbd,
  0x35, 0x7c, 0x08, 0x3e, 0x8b, 0x66, 0x82, 0x3d, 0xd2, 0x12, 0x8f, 0x3d,
  0xf2, 0x1e, 0x4b, 0x3e, 0xc3, 0x0d, 0x96, 0x3c, 0xb4, 0x73, 0xde, 0xbd,
  0xc2, 0x4b, 0xbb, 0x3d, 0x55, 0xd3, 0x4a, 0xbd, 0x66, 0xa0, 0x7d, 0x3c,
  0x51, 0xbb, 0x07, 0x3e, 0x7e, 0x09, 0x0c, 0xbe, 0x0b, 0x14, 0xcb, 0x3d,
  0x45, 0xf3, 0xa8, 0xbc, 0x12, 0x76, 0x8a, 0x3d, 0xdd, 0x11, 0x88, 0x3d,
  0x5c, 0x4c, 0x90, 0x3d, 0x7d, 0x52, 0xfa, 0x3c, 0xc4, 0x0c, 0x36, 0xbc,
  0xe3, 0xb9, 0x61, 0x3d, 0x11, 0x35, 0x87, 0x3d, 0xa3, 0xb2, 0x74, 0x3c,
  0xb6, 0xf3, 0xdf, 0x3d, 0x53, 0xfa, 0xb2, 0x3d, 0x91, 0xda, 0x89, 0xbc,
  0xc0, 0xa2, 0xad, 0xbc, 0x03, 0x17, 0x02, 0x3e, 0xd5, 0xd3, 0x53, 0xbe,
  0x78, 0x1b, 0x1e, 0x3d, 0xa5, 0x46, 0x10, 0xbd, 0x72, 0x40, 0x24, 0x3e,
  0x8b, 0x01, 0x6b, 0xbc, 0x44, 0x80, 0x5a, 0x3e, 0x4a, 0x37, 0x2b, 0x3e,
  0xd9, 0x14, 0xb4, 0xbc, 0xcd, 0x1c, 0x39, 0x3e, 0xe2, 0x33, 0x52, 0x3c,
  0x35, 0x20, 0x75, 0x3c, 0xbc, 0xf3, 0x47, 0x3d, 0xa4, 0x80, 0x49, 0xbd,
  0x16, 0x53, 0x40, 0xbd, 0xfe, 0x56, 0x91, 0xbd, 0x02, 0xc2, 0xe7, 0xbb,
  0x1b, 0xdb, 0x11, 0xbe, 0xa2, 0xb4, 0x44, 0xbe, 0x86, 0x60, 0x63, 0xbe,
  0xdd, 0xbf, 0xd2, 0xbd, 0x5c, 0xa4, 0xd7, 0xbc, 0xe5, 0xdf, 0x2a, 0xbd,
  0x33, 0x2c, 0x20, 0x3e, 0x04, 0xf8, 0x87, 0xbc, 0x8a, 0xa7, 0x20, 0x3d,
  0xf8, 0x0e, 0xc9, 0x3b, 0x08, 0x43, 0x3a, 0x3d, 0x0e, 0xe8, 0x07, 0x3d,
  0xa3, 0x6a, 0x91, 0xbe, 0x65, 0xf1, 0x65, 0x3e, 0x8e, 0x4d, 0x2e, 0x3e,
  0xe8, 0xd0, 0x50, 0xbb, 0x3c, 0x70, 0x1f, 0xbe, 0x63, 0xf5, 0xa9, 0xbd,
  0x5f, 0xcb, 0x48, 0xbd, 0x3c, 0xc2, 0xce, 0xbe, 0xf4, 0x57, 0xea, 0x3c,
  0x96, 0xdb, 0xfe, 0xbe, 0x85, 0x64, 0xcc, 0xbd, 0xba, 0xe9, 0x4d, 0x3d,
  0x62, 0xcc, 0x97, 0xbe, 0xf1, 0xae, 0x38, 0xbe, 0x30, 0x64, 0xfb, 0x39,
  0x54, 0x21, 0x16, 0xbf, 0x75, 0x32, 0xba, 0xbd, 0x17, 0x50, 0x5e, 0x3e,
  0x80, 0x6e, 0x8a, 0x3a, 0xfd, 0x0b, 0x03, 0xbf, 0x62, 0x69, 0x39, 0x3e,
  0x1b, 0x09, 0x9e, 0xbe, 0xf0, 0x10, 0xbc, 0x3d, 0xa4, 0x7e, 0xf7, 0xbe,
  0x3f, 0x95, 0x23, 0xbe, 0x1d, 0x58, 0xa8, 0xbe, 0x33, 0xe3, 0xaa, 0xbe,
  0xda, 0x36, 0xb4, 0x3d, 0x4b, 0x0f, 0xd0, 0xbe, 0x7d, 0xa9, 0x90, 0xbd,
  0x42, 0xc3, 0x82, 0x3d, 0xb4, 0x8f, 0x18, 0x3d, 0x4b, 0x8c, 0xc0, 0xbc,
  0x5c, 0xe6, 0x41, 0x3e, 0x18, 0x42, 0xfa, 0x3c, 0xfb, 0x4f, 0x32, 0xbe,
  0x60, 0xe0, 0x55, 0x3e, 0x75, 0xcb, 0x6f, 0x3d, 0xe2, 0x22, 0xc6, 0x3d,
  0x65, 0xe6, 0xcb, 0xbd, 0x81, 0x1e, 0x8f, 0xbd, 0xd8, 0xe2, 0x47, 0xbe,
  0x8d, 0x33, 0xa4, 0xbe, 0xd8, 0x9e, 0xa0, 0x3d, 0x9e, 0xb3, 0x95, 0xbe,
  0xe6, 0xc2, 0x11, 0xbd, 0xd3, 0xea, 0xff, 0x3d, 0x53, 0xd7, 0x37, 0x3e,
  0xf8, 0x86, 0xa4, 0x3c, 0x9a, 0x20, 0x65, 0x3e, 0x6e, 0x3d, 0x5a, 0x3d,
  0x9e, 0xac, 0x1c, 0xbe, 0xf6, 0xe6, 0x30, 0x3d, 0xac, 0x65, 0xbc, 0xbd,
  0x1d, 0x3a, 0x0f, 0x3d, 0xd6, 0x61, 0xa8, 0xbe, 0x27, 0x14, 0x6e, 0xbd,
  0x7d, 0x12, 0xbe, 0xbe, 0x6c, 0xac, 0x4d, 0xbe, 0x07, 0x00, 0x3f, 0x3d,
  0xe1, 0x12, 0x91, 0xbe, 0xfd, 0xbc, 0x04, 0xbe, 0x9a, 0x6e, 0x9f, 0x3d,
  0xce, 0x4e, 0xdb, 0xbd, 0xbe, 0xba, 0x5a, 0x3d, 0x40, 0xbf, 0xad, 0x3e,
  0x0f, 0x8c, 0x44, 0x3d, 0x9b, 0x57, 0x1f, 0xbe, 0xf7, 0x83, 0xa7, 0x3d,
  0x55, 0xbb, 0x71, 0xbe, 0xda, 0xe7, 0x76, 0xbc, 0x2a, 0xa7, 0x67, 0xbe,
  0x70, 0xd4, 0x8e, 0xbd, 0x5a, 0xa8, 0xe3, 0xbe, 0xea, 0xda, 0x20, 0xbe,
  0xae, 0x30, 0xf7, 0x3b, 0x52, 0x95, 0x89, 0xbe, 0x23, 0x5a, 0x63, 0xbd,
  0x13, 0x4c, 0xd8, 0x3c, 0x6b, 0x91, 0x1e, 0xbe, 0x38, 0xe2, 0x45, 0xbb,
  0x18, 0x20, 0x8f, 0x3e, 0x88, 0xb0, 0x06, 0xbd, 0xe0, 0x84, 0x55, 0xbe,
  0x61, 0x0d, 0x8a, 0x3e, 0x2e, 0xb9, 0x52, 0xbc, 0xfd, 0x14, 0xa2, 0xbd,
  0x6a, 0x3a, 0xd5, 0xbc, 0x99, 0x48, 0x38, 0xbd, 0xcb, 0x8a, 0xd3, 0xbe,
  0xc5, 0xbb, 0x06, 0xbe, 0x7b, 0x8f, 0x1a, 0x3d, 0x84, 0x0a, 0xd2, 0xbe,
  0xf8, 0xe3, 0x93, 0x3b, 0x11, 0x9e, 0xb2, 0x3d, 0x6a, 0x41, 0x6c, 0xbc,
  0x5b, 0x86, 0x1d, 0xbd, 0x92, 0x94, 0x06, 0x3e, 0x37, 0x2d, 0xc1, 0x3d,
  0x22, 0x63, 0xaa, 0xbd, 0x77, 0x19, 0xb6, 0x3d, 0xb1, 0xf5, 0x95, 0xbc,
  0x9a, 0x3c, 0x12, 0x3d, 0x54, 0x6c, 0x1b, 0xbd, 0x5a, 0xaa, 0xf5, 0xbd,
  0x9c, 0x81, 0x4e, 0x3e, 0x68, 0xae, 0xca, 0x3e, 0xc3, 0xe4, 0x13, 0x3d,
  0xe9, 0x2f, 0x14, 0xbd, 0xb9, 0xd5, 0xc3, 0x3c, 0x83, 0x89, 0x3c, 0x3e,
  0x2f, 0x14, 0x84, 0x3d, 0xbc, 0xa6, 0x7f, 0xbd, 0xfb, 0xd1, 0x48, 0xbe,
  0x7c, 0x7c, 0x96, 0xbc, 0xba, 0xef, 0xa1, 0xbd, 0xc9, 0xe9, 0xc6, 0x3d,
  0x9c, 0x93, 0x20, 0x3d, 0xab, 0xba, 0xc4, 0x3c, 0xe7, 0xf9, 0x67, 0xbd,
  0xc0, 0xd0, 0x8d, 0xbd, 0xd2, 0x2e, 0x5b, 0xbe, 0x4b, 0xb6, 0x66, 0x3d,
  0xc9, 0x95, 0x1c, 0xbe, 0x69, 0x9a, 0x04, 0xbe, 0xf8, 0xbf, 0xc1, 0xbd,
  0xba, 0x1a, 0xe5, 0x3d, 0x6f, 0xca, 0x37, 0xbe, 0x06, 0xa7, 0xdc, 0x3d,
  0xd1, 0x7c, 0xcf, 0xbd, 0x33, 0x3b, 0xf1, 0xbc, 0xe1, 0x77, 0xc4, 0xbe,
  0x46, 0x18, 0xc1, 0xbc, 0xe8, 0xfb, 0xe9, 0xbc, 0xc5, 0xb0, 0xa1, 0x3d,
  0x52, 0xbf, 0xa5, 0xbe, 0x89, 0x85, 0x80, 0xbe, 0xb4, 0x1d, 0x7a, 0xbe,
  0x04, 0x61, 0xd6, 0x3c, 0xb0, 0x81, 0x90, 0xbd, 0x47, 0xca, 0xbd, 0xbd,
  0x52, 0x9b, 0x32, 0x3d, 0x06, 0xa4, 0xe7, 0x3d, 0x32, 0xde, 0x77, 0x3d,
  0xd5, 0xc3, 0x07, 0x3e, 0x16, 0x11, 0xf1, 0xbd, 0x9f, 0xd5, 0xcb, 0x3d,
  0x2e, 0x21, 0x05, 0xbe, 0x80, 0xf0, 0xb4, 0x3c, 0x3c, 0xb1, 0x75, 0x3d,
  0x0e, 0x7f, 0x8b, 0x3d, 0xb4, 0x7a, 0xc5, 0xbd, 0x75, 0x39, 0x18, 0xbe,
  0x8b, 0x21, 0x1d, 0xbf, 0x09, 0x33, 0x03, 0xbd, 0x61, 0x4f, 0xc3, 0xbd,
  0xb3, 0x08, 0x6e, 0xbe, 0xd9, 0xb6, 0x22, 0xbe, 0x36, 0x55, 0x02, 0xbe,
  0x26, 0xce, 0x82, 0x3d, 0xd0, 0x5b, 0xb8, 0xbd, 0x9a, 0xc9, 0x64, 0xbd,
  0x9a, 0x6e, 0x50, 0x3d, 0x20, 0x05, 0x01, 0xbc, 0xa3, 0x92, 0x0e, 0x3d,
  0xdd, 0x02, 0x83, 0x3d, 0x78, 0x21, 0x7d, 0x3d, 0x5f, 0x62, 0x14, 0xbc,
  0xb6, 0xe3, 0x25, 0xbe, 0x0d, 0x0b, 0x8d, 0xbe, 0xce, 0x23, 0xb4, 0x3d,
  0x8a, 0x6d, 0xa1, 0xbd, 0xf4, 0xeb, 0x19, 0xbe, 0xcd, 0x14, 0x06, 0xbe,
  0xa7, 0x3d, 0x78, 0xbe, 0x44, 0xbd, 0x5b, 0x3c, 0x8b, 0xe1, 0x46, 0xbd,
  0x8e, 0x2a, 0xeb, 0xbd, 0x6c, 0x25, 0x73, 0x3d, 0xc0, 0x9e, 0x0b, 0xbe,
  0x96, 0x77, 0xa6, 0x3a, 0xa8, 0x04, 0xda, 0x3d, 0x1b, 0x1b, 0x9c, 0x3d,
  0xd4, 0x91, 0x66, 0x3d, 0x09, 0x0f, 0xc7, 0xbd, 0x65, 0x9d, 0xe1, 0xbe,
  0xd0, 0xb4, 0x8e, 0x3d, 0xf9, 0x59, 0x83, 0xbe, 0x89, 0x68, 0xb6, 0xbd,
  0x0a, 0x0d, 0xdb, 0xbe, 0x2c, 0xcd, 0xd9, 0xba, 0x6a, 0x17, 0x0f, 0xbc,
  0x68, 0x14, 0x1d, 0x3c, 0x00, 0x1a, 0x01, 0xbe, 0x7b, 0x08, 0x47, 0x3d,
  0xe1, 0x0b, 0x5f, 0xbe, 0xbf, 0xa8, 0x13, 0xbd, 0x4e, 0x91, 0xfc, 0xbd,
  0xcd, 0x48, 0xbd, 0x3d, 0xcc, 0x79, 0xa1, 0xbd, 0x28, 0xaf, 0x32, 0xbe,
  0x3b, 0x88, 0x85, 0xbf, 0xcd, 0xd5, 0xc3, 0x3d, 0x98, 0x17, 0xf5, 0xbd,
  0xc7, 0xed, 0xde, 0xbd, 0xc7, 0xb1, 0x3d, 0x3d, 0xa4, 0x2d, 0x11, 0xbc,
  0x0b, 0xe2, 0x04, 0x3d, 0xa2, 0x6d, 0x68, 0xbe, 0x54, 0xb4, 0x88, 0xbd,
  0x27, 0x11, 0x91, 0xbb, 0xa1, 0x0b, 0x46, 0xbd, 0x6e, 0xf1, 0xc3, 0xbd,
  0x02, 0xe8, 0x72, 0xbd, 0x1a, 0x8f, 0xf6, 0x3c, 0xbb, 0x47, 0x3f, 0xbe,
  0x82, 0x8b, 0x14, 0xbe, 0x06, 0x08, 0x40, 0x3e, 0xbf, 0x6b, 0xcd, 0x3e,
  0xb6, 0xff, 0x13, 0xbd, 0xdf, 0xe5, 0xbb, 0x3d, 0xec, 0x97, 0x0e, 0xbe,
  0xa7, 0xd1, 0x0e, 0x3a, 0x0f, 0xac, 0x20, 0xbe, 0x23, 0xd6, 0x23, 0xbe,
  0x84, 0x0f, 0xd1, 0xbd, 0x30, 0xcc, 0x84, 0xbe, 0x88, 0x1f, 0x03, 0xbd,
  0xad, 0x26, 0xa5, 0x3d, 0x3a, 0x6f, 0x4e, 0xbd, 0xc2, 0x44, 0x6a, 0xba,
  0x82, 0xfa, 0x44, 0xbe, 0x67, 0xf5, 0x70, 0x3b, 0xb6, 0x0e, 0x01, 0xbd,
  0x88, 0x6f, 0xe7, 0x3d, 0x02, 0x75, 0x8e, 0x3d, 0xb2, 0xf7, 0xdb, 0xbb,
  0x71, 0xeb, 0x86, 0x3d, 0xa7, 0x06, 0x4e, 0xbe, 0x59, 0x71, 0x8d, 0xbc,
  0x60, 0x82, 0x5c, 0xbd, 0x46, 0xa3, 0xc3, 0xbd, 0x97, 0x5e, 0x86, 0xbe,
  0x10, 0xb4, 0xf3, 0xbc, 0xb9, 0x4d, 0xcf, 0xbd, 0x07, 0x67, 0x6e, 0xbe,
  0x41, 0x08, 0xcc, 0xbe, 0x75, 0xdd, 0x33, 0xbc, 0x5d, 0x4a, 0x14, 0x3e,
  0x71, 0x7a, 0x45, 0xbd, 0x25, 0x61, 0xb9, 0x3d, 0xf4, 0xb7, 0xe7, 0x3d,
  0xf4, 0x23, 0x5a, 0x3d, 0xc9, 0x63, 0x25, 0xbe, 0xd5, 0xea, 0xb7, 0xbd,
  0x0d, 0x07, 0xef, 0xbd, 0x28, 0xef, 0xd9, 0xbd, 0x1a, 0x69, 0x45, 0xbe,
  0x6f, 0xdc, 0x60, 0xbe, 0xfc, 0xcb, 0xa1, 0x3c, 0x12, 0xdc, 0x25, 0xbd,
  0x05, 0x06, 0xdc, 0x3d, 0x3c, 0xef, 0x8b, 0x3d, 0x1c, 0x29, 0x30, 0x3d,
  0xcf, 0xe6, 0x11, 0x3d, 0x98, 0x7e, 0xdb, 0x3d, 0x04, 0xff, 0x0a, 0x3e,
  0x0e, 0x0c, 0xe1, 0x3d, 0x0f, 0x2f, 0x8d, 0x3d, 0xb9, 0x5f, 0x0a, 0xbd,
  0x20, 0xe5, 0x9d, 0xbd, 0xde, 0x7e, 0x8d, 0xbd, 0x22, 0x95, 0x8a, 0xbd,
  0x74, 0x69, 0xcc, 0xbc, 0xc7, 0x47, 0x07, 0xbd, 0xdd, 0x98, 0x42, 0x3c,
  0xf7, 0xfa, 0x04, 0xbd, 0xb2, 0xd4, 0x34, 0x3c, 0x29, 0x6d, 0x06, 0x3d,
  0x71, 0xff, 0x76, 0x3d, 0xde, 0x63, 0xa5, 0xba, 0xf3, 0x9d, 0x41, 0xbe,
  0x6f, 0x28, 0x92, 0x3e, 0xb3, 0x80, 0xac, 0xbd, 0x04, 0xa5, 0x7d, 0xbd,
  0x18, 0xe9, 0xbe, 0xbd, 0xac, 0x36, 0xe2, 0x3c, 0x7a, 0xaa, 0x3b, 0x3d,
  0x8f, 0x34, 0xf7, 0xbd, 0x2d, 0x80, 0x2d, 0xbe, 0x1d, 0x6e, 0x61, 0x3d,
  0xee, 0xa9, 0x4a, 0xbd, 0x07, 0xe9, 0x93, 0xbe, 0x23, 0xf5, 0x04, 0xbe,
  0xd1, 0x91, 0xb9, 0x3d, 0xc3, 0x78, 0x02, 0xbe, 0x63, 0x06, 0xc4, 0xbd,
  0xe9, 0x7e, 0x0a, 0x3e, 0x58, 0xc2, 0x99, 0x3e, 0x95, 0x4f, 0xf2, 0xbd,
  0x9a, 0xa5, 0xd0, 0xbd, 0x77, 0x73, 0x83, 0xbc, 0x58, 0x5e, 0x63, 0xbc,
  0x4c, 0x7d, 0x82, 0x3c, 0xea, 0x92, 0x13, 0xbe, 0x8f, 0x5f, 0x64, 0xbe,
  0x2e, 0xd4, 0xb5, 0x3d, 0xb6, 0x96, 0xef, 0x3c, 0xa4, 0xb1, 0x47, 0xbe,
  0x54, 0x7c, 0x8c, 0xbe, 0xd3, 0x47, 0xe6, 0x3d, 0x8f, 0xe2, 0x6a, 0xbd,
  0x8e, 0x39, 0xbf, 0xbd, 0xc3, 0xa0, 0xa1, 0x3d, 0x77, 0x75, 0xa4, 0x3e,
  0x2b, 0x7b, 0x3e, 0xbd, 0x92, 0x5d, 0x21, 0x3d, 0x99, 0x02, 0x14, 0x3b,
  0x3e, 0x33, 0x21, 0x3d, 0xa3, 0x31, 0x5a, 0x3d, 0x8d, 0x76, 0x4b, 0xbe,
  0x45, 0x4f, 0x75, 0xbd, 0xa0, 0x74, 0x9c, 0x3d, 0xa3, 0xd1, 0x9f, 0xbc,
  0x30, 0x03, 0x8a, 0xbe, 0xc1, 0xa4, 0xb3, 0xbe, 0x82, 0xa8, 0x51, 0x3c,
  0xb8, 0x1c, 0x7c, 0xbe, 0x69, 0x5a, 0x47, 0xbe, 0x57, 0x3d, 0x04, 0xbe,
  0x03, 0xd7, 0xf1, 0xbd, 0x42, 0x31, 0x8d, 0x3d, 0xc6, 0xb2, 0x0c, 0xbc,
  0xfb, 0x8c, 0xa3, 0xbe, 0xf5, 0x51, 0xd1, 0xbd, 0xaf, 0x7c, 0xcc, 0xbd,
  0xb8, 0xa0, 0x72, 0xbe, 0xc1, 0x15, 0x48, 0xbe, 0x60, 0x26, 0x0a, 0x3c,
  0xf6, 0x63, 0x02, 0x3e, 0xae, 0x9e, 0xc2, 0xbd, 0x89, 0xe4, 0x3e, 0xbe,
  0xeb, 0xd2, 0xfe, 0xbd, 0xd5, 0x73, 0xfe, 0xbd, 0x81, 0x26, 0x0f, 0xbd,
  0xb7, 0x23, 0x0a, 0xbe, 0x5a, 0x41, 0x49, 0xbc, 0xd1, 0xbd, 0x04, 0x3e,
  0x65, 0xd7, 0x0f, 0xbe, 0x98, 0x7b, 0x42, 0xbe, 0xc4, 0xa9, 0xae, 0xbd,
  0xd9, 0x03, 0x2f, 0xbe, 0x3c, 0xfb, 0x3d, 0xbe, 0xaa, 0x17, 0xbb, 0xbe,
  0x1e, 0x63, 0x84, 0xbc, 0x69, 0x68, 0x6c, 0xbe, 0x99, 0x21, 0x61, 0xbe,
  0x3d, 0x0d, 0x30, 0xbe, 0x82, 0x93, 0x31, 0xbe, 0x71, 0xca, 0x50, 0xbe,
  0x7b, 0xbd, 0x7b, 0xbe, 0xc3, 0xe3, 0xc5, 0xbd, 0x59, 0x2c, 0xc4, 0x3d,
  0x94, 0xc2, 0x20, 0x3e, 0x91, 0x6f, 0x9c, 0xbd, 0xfe, 0xd4, 0x05, 0xba,
  0x9b, 0x37, 0x3e, 0x3e, 0x24, 0xb2, 0x54, 0xbe, 0xa9, 0x5b, 0xe8, 0xbc,
  0xf7, 0x3e, 0xfd, 0xbd, 0x06, 0x60, 0x86, 0xbb, 0x8b, 0x39, 0x5e, 0xbe,
  0x09, 0x02, 0x9d, 0x3c, 0x3d, 0x85, 0x9c, 0xbe, 0x68, 0x30, 0xe2, 0xbd,
  0x12, 0x4a, 0x62, 0x3e, 0x24, 0x1e, 0xfc, 0xbd, 0x77, 0xd5, 0xf3, 0xbd,
  0x4e, 0xe1, 0x90, 0xbd, 0x57, 0xe0, 0x1e, 0x3e, 0x3f, 0x7d, 0x6c, 0xbd,
  0x63, 0x78, 0xf1, 0x3d, 0x5a, 0x69, 0x27, 0x3e, 0xc4, 0xc5, 0x02, 0xbd,
  0x64, 0xa3, 0x18, 0x3e, 0xed, 0x34, 0x16, 0xbe, 0xce, 0x37, 0x93, 0xbd,
  0x85, 0xab, 0xfd, 0x3d, 0x09, 0x0a, 0x52, 0xbd, 0x10, 0x25, 0x1b, 0x3e,
  0xf9, 0x45, 0x91, 0x3d, 0xa5, 0x71, 0x58, 0xbd, 0xe9, 0x72, 0x18, 0xbe,
  0x03, 0x50, 0x37, 0xbe, 0xff, 0x2e, 0x34, 0x3d, 0xea, 0x85, 0xa0, 0x3d,
  0xea, 0x03, 0x9f, 0xbd, 0x06, 0x3e, 0xd5, 0xbd, 0xb8, 0xb5, 0x9e, 0x3e,
  0x82, 0xcc, 0x70, 0xbd, 0xf0, 0x10, 0x45, 0x3d, 0x0c, 0xcf, 0x61, 0xbe,
  0xa9, 0x18, 0x1d, 0xbe, 0x31, 0xcc, 0xa3, 0xbd, 0x2c, 0xc2, 0xf6, 0x3d,
  0x7a, 0xae, 0x20, 0x3d, 0xe6, 0xf0, 0x5c, 0x3b, 0x34, 0xfe, 0x1b, 0xbe,
  0x2b, 0x1f, 0xb6, 0xbe, 0x7e, 0x5e, 0x92, 0xbe, 0xc9, 0xca, 0x8f, 0xbd,
  0xeb, 0x6b, 0x7c, 0xbe, 0x52, 0x17, 0xb9, 0xbe, 0xa6, 0x57, 0xd4, 0xbd,
  0xa0, 0x9d, 0x75, 0xbd, 0x03, 0x99, 0xca, 0xbe, 0xb8, 0xd7, 0xe0, 0xbc,
  0xd7, 0x41, 0xc8, 0xbc, 0xcc, 0x1a, 0x4f, 0xbe, 0x9d, 0x79, 0xda, 0xbd,
  0x70, 0xf3, 0xb8, 0x3d, 0x67, 0x8b, 0xf4, 0x3d, 0xd3, 0x2a, 0x17, 0x3e,
  0x7c, 0xe6, 0x16, 0xbd, 0x66, 0x38, 0x5b, 0xbe, 0x32, 0x9d, 0x0b, 0x3d,
  0xd9, 0x28, 0x62, 0x3d, 0xab, 0x25, 0x1e, 0xbe, 0xca, 0xfc, 0x82, 0xbe,
  0x12, 0xe8, 0x05, 0x3d, 0x41, 0xfe, 0x77, 0xbe, 0x6c, 0x48, 0x4f, 0x3c,
  0x5b, 0x9e, 0x4f, 0xbd, 0xc7, 0x13, 0x85, 0xbe, 0xad, 0xd4, 0x02, 0x3d,
  0x9a, 0xd0, 0xd2, 0x3d, 0x87, 0xbc, 0x27, 0x3c, 0x21, 0xbb, 0x84, 0x3d,
  0x9a, 0x05, 0xd3, 0x3c, 0x7f, 0xbf, 0x1c, 0x3e, 0x47, 0x5d, 0xca, 0xbd,
  0xdd, 0xcb, 0xaf, 0x3d, 0x2c, 0xef, 0x42, 0x3e, 0xa0, 0x4d, 0x9a, 0x3c,
  0x6b, 0x72, 0x0d, 0xbd, 0x95, 0xb4, 0x09, 0xbe, 0xda, 0x5c, 0x63, 0xbd,
  0x93, 0xfc, 0xfb, 0x3c, 0x7c, 0x03, 0x82, 0xbe, 0x8d, 0x82, 0x82, 0xbd,
  0xbc, 0xf8, 0x2a, 0xbd, 0x95, 0x22, 0x6f, 0xbc, 0x01, 0x77, 0xd6, 0x3d,
  0x92, 0xe4, 0x9d, 0xbd, 0x3e, 0xaa, 0x93, 0xbd, 0xa1, 0xed, 0x54, 0xbe,
  0x6b, 0x36, 0xeb, 0xbd, 0x6e, 0x66, 0x5c, 0xbe, 0x21, 0x5b, 0x7b, 0xbe,
  0xec, 0xcb, 0x0e, 0xbe, 0xfb, 0x45, 0x0f, 0xbe, 0x0b, 0xde, 0x5b, 0xbe,
  0x21, 0x96, 0xf1, 0x3d, 0xd5, 0xad, 0x7f, 0x3d, 0x61, 0xf9, 0x68, 0xbe,
  0x6b, 0x84, 0x81, 0xbd, 0xc3, 0x32, 0x60, 0x3d, 0xf3, 0x4a, 0x3f, 0xbe,
  0x4f, 0x8d, 0x8a, 0xbe, 0xc8, 0x03, 0x55, 0xbe, 0xc7, 0xaa, 0xd1, 0xbb,
  0xca, 0xb7, 0xb6, 0xbd, 0xca, 0xd6, 0x79, 0xbd, 0x5f, 0xe1, 0x43, 0xbe,
  0x28, 0x5d, 0x91, 0x3c, 0xaf, 0x9a, 0x95, 0xbd, 0x9a, 0x4e, 0x38, 0xbe,
  0x96, 0xa5, 0xfc, 0xbd, 0x72, 0x64, 0xab, 0x3c, 0x62, 0x93, 0x05, 0x3e,
  0x58, 0x91, 0xe0, 0x3c, 0x46, 0x9e, 0xeb, 0xbd, 0x58, 0x4a, 0x2f, 0x3d,
  0x5c, 0x0b, 0x04, 0xbd, 0x97, 0x59, 0xaa, 0xbd, 0x3d, 0x73, 0x7d, 0xbc,
  0x94, 0xfc, 0xa7, 0xbc, 0x5a, 0x24, 0x80, 0xbd, 0x6f, 0x0b, 0xca, 0xbe,
  0x68, 0x1d, 0x25, 0xbd, 0x68, 0x1e, 0x22, 0xbe, 0x63, 0x00, 0x90, 0x3d,
  0xf3, 0x28, 0xd9, 0xbd, 0x11, 0xa8, 0x00, 0xbe, 0x97, 0x15, 0xf1, 0x3c,
  0x8d, 0x4d, 0x7c, 0x3d, 0x16, 0x21, 0x9f, 0x3d, 0xfa, 0xab, 0x0a, 0xbe,
  0x91, 0x0e, 0x24, 0xbd, 0x01, 0x44, 0xe9, 0x39, 0x38, 0x90, 0x1b, 0xbe,
  0xfe, 0xd0, 0x24, 0xbe, 0xce, 0xef, 0xb6, 0xbc, 0x91, 0xe7, 0x95, 0x3d,
  0xb7, 0xd9, 0x46, 0xbe, 0x13, 0x56, 0x53, 0xbb, 0xef, 0x59, 0xaa, 0xbb,
  0x4f, 0x6f, 0xa7, 0x3b, 0xc5, 0x5b, 0x5d, 0xbe, 0xd1, 0xa2, 0x0b, 0x3e,
  0x57, 0x39, 0x4f, 0x3e, 0x01, 0x68, 0x34, 0x3d, 0xd6, 0x5c, 0x42, 0xbc,
  0x87, 0x23, 0x71, 0xbd, 0x16, 0xe5, 0xef, 0xbc, 0x34, 0x8a, 0x7a, 0xbe,
  0xd3, 0x88, 0x68, 0xbe, 0x1f, 0x2a, 0xf3, 0xbd, 0x2e, 0x02, 0xf0, 0xbc,
  0xf5, 0xf4, 0x61, 0xbe, 0xa7, 0xbf, 0x0f, 0xbe, 0x3c, 0x65, 0xc6, 0xbd,
  0x6b, 0x01, 0xec, 0xbd, 0x7d, 0xac, 0xe1, 0xbd, 0x7a, 0x76, 0x09, 0xbe,
  0x3f, 0xc6, 0x9e, 0xbd, 0xdb, 0x9a, 0x13, 0x3e, 0x7c, 0x99, 0x3e, 0x3d,
  0xa8, 0x38, 0x14, 0xbc, 0x9e, 0x0a, 0x8e, 0xbd, 0x3f, 0x54, 0x1f, 0xbe,
  0x91, 0x90, 0x29, 0xbe, 0x57, 0xb0, 0x71, 0x3c, 0x76, 0x7f, 0xc6, 0xbd,
  0x34, 0xc0, 0xa9, 0x3d, 0x45, 0x7e, 0x95, 0xbc, 0x98, 0xa7, 0xb8, 0xbd,
  0x67, 0xbb, 0x6c, 0xbe, 0x07, 0x09, 0xa4, 0x3c, 0x4e, 0x88, 0x69, 0xbe,
  0x60, 0x89, 0x96, 0xbe, 0x5c, 0xc8, 0x01, 0x3e, 0x59, 0x10, 0xfb, 0x3d,
  0x3d, 0xcb, 0x9c, 0xbb, 0x66, 0x7a, 0x3a, 0xbd, 0x37, 0x62, 0x89, 0xbb,
  0xb4, 0x5e, 0x54, 0xbc, 0x20, 0x8f, 0x2f, 0xbe, 0x87, 0xd7, 0xf9, 0xbc,
  0x8b, 0xa9, 0xa1, 0x3d, 0x12, 0x70, 0x12, 0xbd, 0x8a, 0xf4, 0xae, 0x3c,
  0x86, 0x56, 0x7c, 0xbd, 0x94, 0x50, 0x57, 0xbd, 0x34, 0xc0, 0x3d, 0x3e,
  0x8c, 0x34, 0x95, 0xbd, 0x91, 0xd3, 0x0d, 0x3d, 0x74, 0x29, 0x0a, 0xbc,
  0x06, 0x6b, 0x73, 0xbe, 0x64, 0x24, 0x51, 0xbc, 0x91, 0x69, 0x98, 0x3c,
  0x8e, 0x6a, 0x8a, 0xbe, 0x6e, 0xe4, 0x0d, 0xbc, 0xa2, 0x79, 0x61, 0x3c,
  0x14, 0x92, 0x80, 0x3d, 0x74, 0xa8, 0x8e, 0x3e, 0xd4, 0x36, 0x75, 0x3d,
  0xc5, 0xb5, 0x9a, 0x3e, 0x3c, 0x2e, 0xd9, 0xbd, 0x13, 0xe9, 0x08, 0xbf,
  0xb1, 0xfa, 0x6d, 0x3e, 0x42, 0x6a, 0xd0, 0xbc, 0x6e, 0x5f, 0x80, 0xbe,
  0x1b, 0x50, 0xc4, 0x3d, 0x0a, 0xcd, 0x13, 0xbf, 0xb6, 0x71, 0x27, 0x3e,
  0xd0, 0x50, 0x1d, 0xbe, 0xbf, 0xbe, 0x88, 0xbe, 0x6c, 0xc3, 0xdd, 0x3c,
  0x9c, 0xc1, 0xae, 0x3d, 0x3c, 0xe9, 0xf8, 0xbd, 0x03, 0xd2, 0x01, 0x3e,
  0xb4, 0x02, 0xb8, 0x3d, 0x9e, 0xf3, 0x36, 0x3e, 0x29, 0xbe, 0x36, 0x3b,
  0x6d, 0x96, 0x00, 0xbf, 0x01, 0x3e, 0xc1, 0xbd, 0xe3, 0x34, 0x6f, 0xbc,
  0xcf, 0x84, 0x0e, 0xbe, 0x53, 0x41, 0x05, 0x3e, 0xba, 0x3d, 0xce, 0xbd,
  0x78, 0x82, 0xf7, 0x3d, 0x4e, 0x67, 0xa0, 0xbd, 0xea, 0xa1, 0x96, 0xbd,
  0x64, 0xc3, 0xe1, 0x3a, 0x0f, 0x60, 0x2e, 0x3e, 0xed, 0x5f, 0x90, 0xbd,
  0xd3, 0x62, 0xed, 0x3b, 0x48, 0x41, 0xd0, 0x3c, 0x4b, 0x62, 0x3f, 0x3e,
  0x64, 0x9c, 0x96, 0xbc, 0x65, 0xc0, 0xd2, 0xbd, 0x55, 0xb5, 0xad, 0xbc,
  0x50, 0xcf, 0x9f, 0xbc, 0x72, 0x68, 0x37, 0xbe, 0x21, 0xb2, 0xaa, 0x3d,
  0xe4, 0x09, 0x1b, 0x3d, 0xf8, 0xeb, 0x30, 0xba, 0x35, 0x8b, 0xe7, 0xbb,
  0x17, 0xb6, 0x4b, 0xbd, 0x39, 0x18, 0x20, 0x3d, 0x82, 0xe9, 0xa9, 0x3d,
  0xf0, 0x4c, 0xab, 0xba, 0xe1, 0x8d, 0x13, 0xbd, 0x30, 0x6e, 0x6c, 0x3d,
  0x29, 0x8d, 0xeb, 0x3d, 0xc7, 0xb1, 0xe6, 0xbc, 0x0e, 0x91, 0x1f, 0xbe,
  0x5f, 0x8f, 0xbe, 0xbb, 0x8d, 0xe3, 0xb9, 0xbb, 0xdf, 0x7b, 0xce, 0xbd,
  0xb6, 0x0d, 0xfa, 0x3c, 0xa3, 0x30, 0xad, 0x3c, 0x97, 0x76, 0x97, 0xbc,
  0xed, 0x9f, 0x90, 0x3c, 0xf4, 0x5c, 0x01, 0xbe, 0x1a, 0xe6, 0x8f, 0x3b,
  0xb5, 0xb6, 0x10, 0x3c, 0xb1, 0xc8, 0x2f, 0xbd, 0xcb, 0x7f, 0xfd, 0x3c,
  0xb5, 0xd7, 0x78, 0x3d, 0x0e, 0x0c, 0x4a, 0x3d, 0x4b, 0xad, 0x27, 0xbd,
  0x17, 0x15, 0x1e, 0xbe, 0x37, 0x48, 0x5b, 0xbc, 0xd0, 0xf2, 0x24, 0xbd,
  0xc2, 0x64, 0xf3, 0xbc, 0xaa, 0x43, 0x96, 0x3d, 0xe4, 0xde, 0x6a, 0xbd,
  0x10, 0x26, 0xb9, 0x3c, 0xa4, 0x94, 0xc4, 0xbd, 0x04, 0x45, 0x44, 0xbd,
  0x18, 0x87, 0x67, 0x3c, 0x9d, 0x70, 0x63, 0x3d, 0x8e, 0x7b, 0x90, 0xbd,
  0x68, 0x22, 0x34, 0x3c, 0x68, 0x44, 0xac, 0x3b, 0xac, 0xb7, 0xba, 0x3d,
  0x68, 0xd5, 0x90, 0xbc, 0x2b, 0xe9, 0x66, 0xbe, 0x2f, 0xf2, 0xd1, 0x3c,
  0x25, 0xfe, 0x62, 0xbd, 0x13, 0x6b, 0xe4, 0x3c, 0xc8, 0x5e, 0x05, 0xbd,
  0x26, 0x3a, 0x11, 0x3d, 0xbe, 0xa8, 0x9a, 0xbd, 0xad, 0x43, 0x26, 0xbd,
  0xba, 0x47, 0x45, 0xbc, 0x6f, 0xb3, 0xe9, 0xbc, 0x51, 0xd7, 0xc2, 0xbc,
  0x26, 0x29, 0x98, 0xbd, 0xb4, 0x02, 0xfb, 0xba, 0xc7, 0xba, 0x30, 0x3c,
  0x67, 0x95, 0x23, 0x3e, 0x57, 0xd3, 0x20, 0xbd, 0x21, 0xae, 0x4d, 0xbe,
  0x58, 0xa8, 0x47, 0xbe, 0x6e, 0xec, 0x36, 0x3d, 0x81, 0x8a, 0xc1, 0xbb,
  0x75, 0x72, 0xf6, 0xbb, 0x20, 0x97, 0x0f, 0x3e, 0x86, 0x9b, 0x80, 0xbd,
  0xf6, 0xad, 0x1b, 0x3d, 0xf5, 0xb7, 0x3a, 0xbd, 0x1d, 0xcc, 0x04, 0xbc,
  0xb7, 0x0f, 0x1f, 0x3e, 0x92, 0x51, 0xfc, 0xbc, 0xe3, 0x68, 0x1a, 0x3d,
  0xdd, 0x6f, 0x82, 0x3c, 0x7b, 0xc4, 0x33, 0x3e, 0xac, 0xe4, 0x8d, 0xbe,
  0xb8, 0xc2, 0x8f, 0xbe, 0xc6, 0x76, 0x98, 0xbd, 0xb9, 0xb0, 0xc4, 0x3c,
  0xfd, 0x7f, 0x35, 0xbe, 0xeb, 0x24, 0x30, 0x3e, 0x73, 0x7f, 0x36, 0x3d,
  0xf3, 0x27, 0x9b, 0x3d, 0xed, 0x99, 0xfc, 0x3c, 0x5f, 0x99, 0xab, 0xbd,
  0x44, 0x12, 0x81, 0xbd, 0x48, 0x6e, 0x7c, 0x3d, 0xd9, 0x36, 0x42, 0x3c,
  0xbc, 0x63, 0xc4, 0x3d, 0xb5, 0x6b, 0x26, 0x3d, 0xf8, 0x0b, 0x57, 0xbc,
  0xd9, 0x7b, 0x91, 0xbe, 0x3b, 0xe4, 0xd5, 0xbe, 0x36, 0xb8, 0x8c, 0xbe,
  0x42, 0x02, 0x59, 0x3d, 0xfb, 0x78, 0x35, 0xbf, 0x7c, 0x33, 0xb3, 0xbd,
  0x97, 0x50, 0x72, 0x3e, 0x84, 0x43, 0x9b, 0x3d, 0x17, 0xbe, 0xbb, 0x3d,
  0x6e, 0x11, 0xe8, 0x3c, 0x61, 0x74, 0x43, 0xbd, 0x49, 0x1f, 0xbb, 0x3c,
  0x2c, 0xe2, 0x94, 0xbd, 0x65, 0xdd, 0x46, 0x3e, 0x3a, 0x71, 0x84, 0x3c,
  0x31, 0x65, 0x83, 0x3d, 0xf6, 0x26, 0x17, 0xbe, 0x4a, 0x13, 0x98, 0xbd,
  0x2e, 0x33, 0xa0, 0xbd, 0x6d, 0xef, 0x22, 0x3c, 0x5c, 0xd6, 0x14, 0xbe,
  0x7d, 0xa8, 0x55, 0x3e, 0x3d, 0xef, 0xf8, 0x3d, 0x21, 0x91, 0x57, 0x3d,
  0xe4, 0xea, 0xd9, 0x3d, 0xa3, 0xcd, 0xee, 0x3c, 0x1d, 0x16, 0x05, 0xbe,
  0xcc, 0x2c, 0x0e, 0x3b, 0xb6, 0x64, 0x73, 0xbd, 0x5f, 0x1a, 0x59, 0x3e,
  0xaf, 0x8b, 0x5c, 0xbb, 0x9c, 0x86, 0xc7, 0x3d, 0x73, 0xaf, 0xa6, 0xbd,
  0x98, 0x8e, 0x9c, 0xbe, 0x6d, 0x15, 0xb9, 0xbd, 0x1b, 0x47, 0x10, 0x3b,
  0xb7, 0x3c, 0x11, 0xbe, 0xcc, 0x69, 0x52, 0x3e, 0xfd, 0x61, 0xb3, 0x3d,
  0x35, 0xbe, 0x07, 0x3e, 0x67, 0x45, 0x9d, 0x3d, 0x97, 0xa7, 0x56, 0xbc,
  0x16, 0xfe, 0x42, 0xbd, 0xec, 0x38, 0x93, 0xbd, 0xc5, 0x1b, 0xc4, 0xbc,
  0x69, 0x13, 0xcc, 0x3d, 0xc3, 0xde, 0x3b, 0xbd, 0x6f, 0x07, 0x03, 0x3e,
  0x5e, 0x7b, 0xa6, 0xbd, 0x21, 0x7a, 0xa5, 0xbe, 0xa8, 0x5e, 0x00, 0xbe,
  0x0e, 0xfc, 0xa0, 0x39, 0x54, 0xc7, 0x5b, 0xbe, 0x7e, 0xe6, 0x7d, 0x3e,
  0xd0, 0x66, 0x5e, 0x3e, 0x24, 0x50, 0xdc, 0x3d, 0x3c, 0x87, 0x5e, 0x3d,
  0x3f, 0xe2, 0xe1, 0xbc, 0x0c, 0xd4, 0x37, 0x3c, 0xb0, 0x94, 0x23, 0xbd,
  0x51, 0x6a, 0xf0, 0x3c, 0xa3, 0x08, 0x0d, 0x3e, 0x0d, 0xc8, 0x83, 0xbd,
  0x84, 0x27, 0x1e, 0x3e, 0xbb, 0x60, 0xcb, 0xbd, 0xd0, 0x09, 0xa9, 0xbe,
  0x4f, 0x54, 0x5b, 0xbe, 0x55, 0x5a, 0x07, 0x3e, 0xff, 0x3c, 0x84, 0xbe,
  0x80, 0x30, 0xcf, 0xbb, 0xf9, 0x0f, 0x26, 0x3e, 0x07, 0xbb, 0x85, 0x3c,
  0x37, 0x3d, 0x9c, 0x3d, 0x48, 0x80, 0x4a, 0xbe, 0xef, 0xb0, 0xf4, 0xbb,
  0xa7, 0xa9, 0x22, 0xbd, 0x22, 0xab, 0xad, 0x3d, 0xbc, 0x68, 0x89, 0x3e,
  0x19, 0x16, 0x86, 0x3c, 0xde, 0x04, 0x8b, 0x3e, 0x5e, 0xfd, 0xff, 0xff,
  0x10, 0x00, 0x00, 0x00, 0x07, 0x00, 0x00, 0x00, 0x14, 0x00, 0x00, 0x00,
  0x2c, 0x00, 0x00, 0x00, 0x02, 0x00, 0x00, 0x00, 0x10, 0x00, 0x00, 0x00,
  0x70, 0x00, 0x00, 0x00, 0x17, 0x00, 0x00, 0x00, 0x73, 0x65, 0x71, 0x75,
  0x65, 0x6e, 0x74, 0x69, 0x61, 0x6c, 0x2f, 0x64, 0x65, 0x6e, 0x73, 0x65,
  0x2f, 0x4d, 0x61, 0x74, 0x4d, 0x75, 0x6c, 0x00, 0xc8, 0xfc, 0xff, 0xff,
  0xd2, 0xfd, 0xff, 0xff, 0x04, 0x00, 0x00, 0x00, 0x08, 0x00, 0x00, 0x00,
  0xff, 0xff, 0xff, 0xff, 0x70, 0x00, 0x00, 0x00, 0x00, 0x00, 0x0e, 0x00,
  0x18, 0x00, 0x08, 0x00, 0x07, 0x00, 0x0c, 0x00, 0x10, 0x00, 0x14, 0x00,
  0x0e, 0x00, 0x00, 0x00, 0x00, 0x00, 0x00, 0x02, 0x10, 0x00, 0x00, 0x00,
  0x06, 0x00, 0x00, 0x00, 0x10, 0x00, 0x00, 0x00, 0x2c, 0x00, 0x00, 0x00,
  0x01, 0x00, 0x00, 0x00, 0x02, 0x00, 0x00, 0x00, 0x18, 0x00, 0x00, 0x00,
  0x73, 0x65, 0x71, 0x75, 0x65, 0x6e, 0x74, 0x69, 0x61, 0x6c, 0x2f, 0x66,
  0x6c, 0x61, 0x74, 0x74, 0x65, 0x6e, 0x2f, 0x43, 0x6f, 0x6e, 0x73, 0x74,
  0x00, 0x00, 0x00, 0x00, 0x30, 0xfd, 0xff, 0xff, 0x3a, 0xfe, 0xff, 0xff,
  0x04, 0x00, 0x00, 0x00, 0x14, 0x00, 0x00, 0x00, 0x9d, 0x1f, 0x7c, 0xbf,
  0xda, 0x94, 0x06, 0xc0, 0xf4, 0xcf, 0x43, 0xc0, 0x15, 0x63, 0x0c, 0x40,
  0x21, 0xc1, 0xd4, 0x3f, 0x26, 0xfe, 0xff, 0xff, 0x10, 0x00, 0x00, 0x00,
  0x05, 0x00, 0x00, 0x00, 0x10, 0x00, 0x00, 0x00, 0x44, 0x00, 0x00, 0x00,
  0x01, 0x00, 0x00, 0x00, 0x05, 0x00, 0x00, 0x00, 0x32, 0x00, 0x00, 0x00,
  0x73, 0x65, 0x71, 0x75, 0x65, 0x6e, 0x74, 0x69, 0x61, 0x6c, 0x2f, 0x64,
  0x65, 0x6e, 0x73, 0x65, 0x5f, 0x31, 0x2f, 0x42, 0x69, 0x61, 0x73, 0x41,
  0x64, 0x64, 0x2f, 0x52, 0x65, 0x61, 0x64, 0x56, 0x61, 0x72, 0x69, 0x61,
  0x62, 0x6c, 0x65, 0x4f, 0x70, 0x2f, 0x72, 0x65, 0x73, 0x6f, 0x75, 0x72,
  0x63, 0x65, 0x00, 0x00, 0xa8, 0xfd, 0xff, 0xff, 0xb2, 0xfe, 0xff, 0xff,
  0x04, 0x00, 0x00, 0x00, 0x40, 0x00, 0x00, 0x00, 0x69, 0x6a, 0x34, 0xc0,
  0x1d, 0x7c, 0x4d, 0x40, 0xe1, 0xdf, 0x9e, 0xbf, 0x6e, 0x12, 0x8b, 0xbf,
  0xe8, 0xd9, 0x83, 0x40, 0xf1, 0xd5, 0x55, 0xbf, 0x27, 0xb3, 0xcd, 0xbf,
  0x93, 0x92, 0xa5, 0xbe, 0xcd, 0x4d, 0x86, 0xbf, 0xe5, 0x47, 0x03, 0xbd,
  0xd3, 0x68, 0x2a, 0x40, 0xf8, 0x69, 0x9b, 0x3f, 0xa4, 0xd2, 0x35, 0x3f,
  0x08, 0xa2, 0x55, 0x3f, 0x22, 0xb1, 0x6e, 0x40, 0x0f, 0x53, 0x0b, 0xc0,
  0xca, 0xfe, 0xff, 0xff, 0x10, 0x00, 0x00, 0x00, 0x04, 0x00, 0x00, 0x00,
  0x10, 0x00, 0x00, 0x00, 0x44, 0x00, 0x00, 0x00, 0x01, 0x00, 0x00, 0x00,
  0x10, 0x00, 0x00, 0x00, 0x30, 0x00, 0x00, 0x00, 0x73, 0x65, 0x71, 0x75,
  0x65, 0x6e, 0x74, 0x69, 0x61, 0x6c, 0x2f, 0x64, 0x65, 0x6e, 0x73, 0x65,
  0x2f, 0x42, 0x69, 0x61, 0x73, 0x41, 0x64, 0x64, 0x2f, 0x52, 0x65, 0x61,
  0x64, 0x56, 0x61, 0x72, 0x69, 0x61, 0x62, 0x6c, 0x65, 0x4f, 0x70, 0x2f,
  0x72, 0x65, 0x73, 0x6f, 0x75, 0x72, 0x63, 0x65, 0x00, 0x00, 0x00, 0x00,
  0x4c, 0xfe, 0xff, 0xff, 0x56, 0xff, 0xff, 0xff, 0x04, 0x00, 0x00, 0x00,
  0x40, 0x00, 0x00, 0x00, 0x30, 0xf6, 0x68, 0xc0, 0xd8, 0x63, 0x0f, 0x40,
  0xf0, 0x6f, 0x59, 0x3f, 0xe0, 0x7d, 0x1b, 0xc0, 0x40, 0x84, 0x8b, 0xbf,
  0x29, 0xbf, 0xb6, 0x3e, 0x70, 0xb3, 0x50, 0xc0, 0x65, 0x7c, 0x57, 0x3f,
  0xfc, 0x10, 0x17, 0xc0, 0x50, 0x51, 0x46, 0xc0, 0x1a, 0x28, 0x33, 0x40,
  0x4f, 0x69, 0x8e, 0xbf, 0xce, 0xb6, 0x07, 0xc0, 0xae, 0x52, 0xe4, 0xbe,
  0x36, 0x66, 0xb9, 0x3f, 0x1c, 0xc2, 0xa2, 0xbf, 0x6e, 0xff, 0xff, 0xff,
  0x10, 0x00, 0x00, 0x00, 0x03, 0x00, 0x00, 0x00, 0x10, 0x00, 0x00, 0x00,
  0x48, 0x00, 0x00, 0x00, 0x01, 0x00, 0x00, 0x00, 0x10, 0x00, 0x00, 0x00,
  0x33, 0x00, 0x00, 0x00, 0x73, 0x65, 0x71, 0x75, 0x65, 0x6e, 0x74, 0x69,
  0x61, 0x6c, 0x2f, 0x63, 0x6f, 0x6e, 0x76, 0x32, 0x64, 0x5f, 0x31, 0x2f,
  0x42, 0x69, 0x61, 0x73, 0x41, 0x64, 0x64, 0x2f, 0x52, 0x65, 0x61, 0x64,
  0x56, 0x61, 0x72, 0x69, 0x61, 0x62, 0x6c, 0x65, 0x4f, 0x70, 0x2f, 0x72,
  0x65, 0x73, 0x6f, 0x75, 0x72, 0x63, 0x65, 0x00, 0x04, 0x00, 0x06, 0x00,
  0x04, 0x00, 0x00, 0x00, 0x00, 0x00, 0x06, 0x00, 0x08, 0x00, 0x04, 0x00,
  0x06, 0x00, 0x00, 0x00, 0x04, 0x00, 0x00, 0x00, 0x20, 0x00, 0x00, 0x00,
  0x0c, 0x30, 0x0d, 0xc0, 0xd2, 0xa0, 0xcc, 0xbf, 0x27, 0x0d, 0x35, 0x3f,
  0xa8, 0x78, 0x75, 0x3f, 0x84, 0x1b, 0x68, 0xc0, 0x83, 0x91, 0x9f, 0xba,
  0xe4, 0xb0, 0xd7, 0xbf, 0x93, 0x55, 0x93, 0xbf, 0x00, 0x00, 0x0e, 0x00,
  0x14, 0x00, 0x04, 0x00, 0x00, 0x00, 0x08, 0x00, 0x0c, 0x00, 0x10, 0x00,
  0x0e, 0x00, 0x00, 0x00, 0x10, 0x00, 0x00, 0x00, 0x02, 0x00, 0x00, 0x00,
  0x10, 0x00, 0x00, 0x00, 0x44, 0x00, 0x00, 0x00, 0x01, 0x00, 0x00, 0x00,
  0x08, 0x00, 0x00, 0x00, 0x31, 0x00, 0x00, 0x00, 0x73, 0x65, 0x71, 0x75,
  0x65, 0x6e, 0x74, 0x69, 0x61, 0x6c, 0x2f, 0x63, 0x6f, 0x6e, 0x76, 0x32,
  0x64, 0x2f, 0x42, 0x69, 0x61, 0x73, 0x41, 0x64, 0x64, 0x2f, 0x52, 0x65,
  0x61, 0x64, 0x56, 0x61, 0x72, 0x69, 0x61, 0x62, 0x6c, 0x65, 0x4f, 0x70,
  0x2f, 0x72, 0x65, 0x73, 0x6f, 0x75, 0x72, 0x63, 0x65, 0x00, 0x00, 0x00,
  0x90, 0xff, 0xff, 0xff, 0x14, 0x00, 0x18, 0x00, 0x04, 0x00, 0x00, 0x00,
  0x08, 0x00, 0x0c, 0x00, 0x10, 0x00, 0x00, 0x00, 0x00, 0x00, 0x14, 0x00,
  0x14, 0x00, 0x00, 0x00, 0x14, 0x00, 0x00, 0x00, 0x01, 0x00, 0x00, 0x00,
  0x20, 0x00, 0x00, 0x00, 0x44, 0x00, 0x00, 0x00, 0x2c, 0x00, 0x00, 0x00,
  0x04, 0x00, 0x00, 0x00, 0x01, 0x00, 0x00, 0x00, 0x40, 0x00, 0x00, 0x00,
  0x03, 0x00, 0x00, 0x00, 0x01, 0x00, 0x00, 0x00, 0x0c, 0x00, 0x00, 0x00,
  0x63, 0x6f, 0x6e, 0x76, 0x32, 0x64, 0x5f, 0x69, 0x6e, 0x70, 0x75, 0x74,
  0x00, 0x00, 0x00, 0x00, 0x04, 0x00, 0x00, 0x00, 0xff, 0xff, 0xff, 0xff,
  0x40, 0x00, 0x00, 0x00, 0x03, 0x00, 0x00, 0x00, 0x01, 0x00, 0x00, 0x00,
  0xfc, 0xff, 0xff, 0xff, 0x04, 0x00, 0x04, 0x00, 0x04, 0x00, 0x00, 0x00

};


unsigned int model_tflite_len = 13188;// Fill the int in `src/model.cc` here
